[PAD]
[UNK]
[CLS]
[SEP]
[MASK]
!
#
$
%
&
'
(
)
*
+
,
-
.
/
0
1
2
3
4
5
6
7
8
9
:
;
<
=
>
?
@
[
\
]
^
_
`
a
b
c
d
e
f
g
h
i
j
k
l
m
n
o
p
q
r
s
t
u
v
w
x
y
z
{
|
}
~
¡
£
¤
¥
¦
§
¨
©
«
¬
®
¯
°
±
²
³
´
µ
¶
·
¸
¹
º
»
¼
½
¾
¿
×
ß
à
á
â
ã
ä
å
æ
ç
è
é
ê
ë
ì
í
î
ï
ð
ñ
ò
ó
ô
õ
ö
÷
ø
ù
ú
û
ü
ý
þ
ÿ
ā
ą
ć
č
ę
ğ
ı
ĺ
ł
ń
œ
ŕ
ř
ś
š
ŧ
ū
ű
ŷ
ż
ž
ƺ
ǝ
ɐ
ɔ
ɟ
ɡ
ɥ
ɯ
ɹ
ʇ
ʍ
ʎ
ʔ
˙
˚
˝
̀
́
̂
̃
̄
̅
̆
̇
̈
̉
̊
̋
̌
̍
̎
̏
̐
̑
̒
̓
̔
̕
̖
̗
̘
̙
̚
̛
̜
̝
̞
̟
̠
̡
̢
̣
̤
̥
̦
̧
̨
̩
̪
̫
̬
̭
̮
̯
̰
̱
̲
̳
̴
̵
̶
̷
̸
̹
̺
̻
̼
̽
̾
̿
̀
́
͂
̓
̈́
ͅ
͆
͇
͈
͉
͊
͋
͌
͍
͎
͏
͑
͒
͓
͗
͘
͜
͝
͞
͟
͠
͡
͢
ά
ί
α
γ
ε
η
λ
μ
ν
ξ
ο
π
ρ
σ
τ
υ
φ
а
б
в
г
д
е
ж
з
и
й
к
л
м
н
о
п
р
с
т
у
х
ч
ш
щ
ы
ь
э
ю
я
ѐ
א
ג
ח
י
ך
ל
ם
מ
ן
ע
ק
ר
ש
؟
ء
ؤ
ا
ب
ة
ت
ث
ج
ح
خ
ر
س
ش
ص
ظ
ع
غ
ف
ق
ك
ل
م
ن
ه
و
ى
ي
ِ
ّ
ߵ
ஜ
ா
ூ
ሽ
ች
ዝ
ድ
᷄
᷅
᷆
᷇
᷈
᷉
ḿ
ṕ
ụ
‐
–
—
‘
’
“
”
„
†
•
…
″
›
⁾
₀
₁
€
⃐
⃑
⃖
⃗
⃛
⃜
⃝
⃡
℃
™
←
↑
→
↓
↕
−
≤
⎺
⎻
⎼
⎽
␊
␋
␍
␤
│
┌
├
┤
┼
╔
╖
╝
▌
░
▒
▸
☺
☻
♥
⚇
➜
➡
⠇
⠜
⠣
⠭
⠸
⡀
⡇
⡈
⢀
⢁
⣇
⣸
。
あ
い
う
お
か
が
き
さ
し
す
た
で
と
ど
な
の
は
ま
も
よ
ら
り
ウ
ギ
ダ
ツ
ド
ネ
ロ
ン
ー
三
上
不
世
个
中
了
事
人
他
份
伝
何
你
像
克
入
全
决
分
到
加
劾
勝
友
发
取
吗
哦
啊
四
国
増
备
大
套
好
如
字
学
安
定
家
富
就
已
帮
应
开
式
弹
当
录
忙
恋
我
把
指
接
文
无
日
時
有
朋
木
本
束
模
樹
没
法
测
点
界
的
目
破
离
秀
种
结
聊
能
行
衹
装
要
解
評
話
語
説
试
说
请
读
输
那
釻
铖
間
问
電
题
马
魔
！
＆
，
：
＞
？
＠
＿
ａ
ｂ
ｄ
ｅ
ｆ
ｈ
ｉ
ｌ
ｍ
ｎ
ｏ
ｐ
ｒ
ｓ
ｔ
ｕ
ｗ
ｙ
##a
##c
##o
##u
##d
##i
##s
##r
##b
##l
##n
##g
##0
##e
##t
##j
##m
##p
##y
##9
##5
##3
##6
##1
##2
##x
##h
##f
##4
##k
##8
##w
##v
##7
##z
##q
##ò
##î
##¨
##−
##å
##ë
##à
##ü
##í
##ŕ
##á
##ì
##ä
##ó
##€
##а
##р
##о
##д
##é
##´
##ś
##т
##⡀
##ø
##ل
##ي
##ه
##␋
##⎼
##␊
##⎻
##┌
##▒
##≤
##½
##س
##æ
##û
##н
##и
##ь
##ן
##ח
##в
##ñ
##™
##м
##õ
##ö
##ß
##ã
##º
##全
##模
##式
##ж
##у
##ｏ
##ｗ
##ｅ
##ｒ
##ð
##¾
##法
##读
##取
##套
##接
##字
##ï
##â
##с
##к
##е
##ł
##ى
##غ
##خ
##ث
##م
##ك
##ن
##结
##束
##ÿ
##®
##ш
##°
##ù
##ج
##ا
##ء
##ı
##л
##ɡ
##ê
##ع
##ر
##ف
##╔
##╖
##ĺ
##⠜
##я
##ç
##さ
##き
##б
##ч
##г
##问
##有
##人
##能
##帮
##忙
##吗
##ο
##υ
##×
##з
##ć
##ஜ
##ா
##п
##ю
##話
##ح
##ة
##י
##מ
##ל
##ʔ
##お
##も
##あ
##が
##と
##ū
##è
##ם
##ע
##ק
##א
##ש
##ɥ
##よ
##う
##な
##ら
##家
##好
##秀
##ы
##▌
##й
##þ
##ｂ
##ｕ
##ｎ
##ｔ
##ɯ
##ך
##ű
##├
##␤
##ق
##ú
##±
##中
##国
##朋
##友
##ظ
##┤
##␍
##⎺
##¤
##π
##ε
##ξ
##ρ
##γ
##α
##σ
##ί
##ā
##ƺ
##ድ
##ች
##ዝ
##ሽ
##开
##了
##¹
##啊
##点
##像
##的
##那
##种
##˙
##ɟ
##⠸
##¸
##ý
##の
##は
##何
##で
##す
##か
##ž
##х
##り
##ま
##し
##た
##ش
##ت
##̂
##̃
##̄
##̅
##̋
##̊
##̉
##̈
##̇
##̆
##̌
##̍
##̎
##̏
##̐
##̑
##̗
##̖
##̕
##̔
##̓
##̒
##̘
##̙
##̚
##̛
##̜
##̝
##̣
##̢
##̡
##̠
##̟
##̞
##̤
##̥
##̦
##̧
##̨
##̩
##̯
##̮
##̭
##̬
##̫
##̪
##̰
##̱
##̲
##̳
##̴
##̵
##̻
##̺
##̹
##̸
##̷
##̶
##̼
##̽
##̾
##̿
##̀
##́
##͇
##͆
##ͅ
##̈́
##̓
##͂
##͈
##͉
##͊
##͋
##͌
##͍
##͓
##͒
##͑
##͏
##͎
##͗
##͘
##͟
##͞
##͝
##͜
##͠
##͡
##͢
##᷄
##᷅
##᷆
##᷇
##᷈
##᷉
##⃐
##⃑
##⃗
##⃖
##⃜
##⃝
##⃡
##⃛
##ğ
##说
##文
##入
##魔
##世
##界
##樹
##伝
##説
##÷
##要
##把
##装
##到
##指
##定
##目
##录
##上
##š
##時
##間
##⣸
##£
##œ
##ｓ
##ｍ
##¬
##ａ
##²
##³
##µ
##输
##题
##应
##当
##如
##解
##决
##ߵ
##ب
##备
##份
##ר
##ג
##¥
##不
##日
##本
##ウ
##ン
##ロ
##ー
##ド
##ż
##破
##三
##四
##他
##哦
##马
##克
##弹
##劾
##发
##ę
##⠭
##い
##ｆ
##τ
##η
##ν
##φ
##ά
##λ
##μ
##→
##↓
##←
##ḿ
##ǝ
##ɹ
##ɔ
##¼
##˚
##＞
##试
##ギ
##語
##増
##事
##₀
##́
##ụ
##聊
##个
##就
##行
##ｈ
##č
##ʍ
##ą
##木
##ِ
##ř
##ｙ
##ص
##ɐ
##☻
##↕
##╝
##♥
##ô
##铖
eo
eou
th
##er
eot
##ou
the
##at
be
##in
##or
##st
to
##an
##on
it
an
##ll
in
you
##ve
##le
do
##om
##re
##it
##ow
##nt
##se
wh
##et
##ut
##ot
##ar
and
re
that
ha
on
have
##es
##en
##ic
##all
##ion
for
##ay
##ac
##al
inst
##ere
of
##bu
##ver
##ld
can
##is
##ee
##ntu
##buntu
not
##ro
what
##ith
##ing
but
##ad
use
fi
ubuntu
get
with
su
my
##ge
##ry
##me
any
me
com
##ke
##ble
##ec
##pt
##ig
##ly
li
st
##ould
##ork
pro
or
##ome
lo
##el
how
##ust
##de
de
if
try
install
##ind
##ri
sh
##pp
just
so
ch
##ss
work
##un
no
con
up
##art
there
##ill
##th
##ate
##ack
##op
as
##ch
##ell
##age
##ter
kn
go
know
##od
##rom
your
file
al
##oot
##as
lin
this
##ard
##one
##ce
##eed
from
##am
ex
##igh
run
than
di
##ct
need
see
all
##ant
##ally
some
##ste
##nd
us
then
at
ma
##ight
like
##ess
dri
##ame
##out
##and
when
##ine
sy
##il
want
##ers
##id
comp
##elp
instal
##ink
help
will
one
ne
##do
##ore
##ue
##ux
##able
##ort
thank
##ect
##ur
ok
wind
ca
think
##ul
##gr
window
##lo
pl
##blem
ad
##ok
problem
out
he
##tp
pack
ab
apt
##ff
##so
sou
##ation
sudo
should
yes
ht
##are
would
set
sc
linux
say
make
man
##ive
pa
now
anyone
##ea
un
conf
##hing
##ite
package
find
##pen
about
boot
im
part
chan
cd
##ase
windows
##ount
its
comm
##gh
http
##wn
##stem
##rr
##ia
look
ser
gu
##ont
##ure
app
##ox
##pe
##ab
##nel
##pl
mo
driver
gr
##ough
well
som
##im
##ide
##ir
only
##ol
##00
somet
##ition
##ice
##ach
system
why
et
gn
##ime
dis
##erm
##ain
##ick
int
etc
##rror
##ich
way
sp
net
##us
right
command
en
##ult
could
po
##ag
dev
##ie
which
pre
new
se
sure
they
##ther
##rect
gnome
mean
##use
start
wi
##eck
error
something
add
##ap
server
we
##thing
partition
##cc
des
##ist
ve
ever
##os
down
##te
change
##ash
by
##apt
thing
cl
where
check
##up
back
##ile
##ree
here
##top
##lease
bu
open
log
card
time
tell
##ck
##um
mount
hard
other
##ware
ker
may
rem
##ions
ed
##ub
kernel
them
##ose
##oth
##ktop
good
yea
supp
##ade
config
rep
desktop
tr
##ace
upd
##load
##iz
drive
hi
ll
every
rec
ty
wr
af
update
sound
ide
give
def
##ail
read
##reen
##ong
list
still
##nect
paste
##ed
sour
vers
user
##sh
##uest
##work
same
##mm
dont
##inal
more
ag
##per
##ory
fire
term
play
##be
##end
##orry
##ca
connect
##gram
yeah
fo
root
deb
network
mod
program
acc
ask
##way
##ove
##ually
bet
really
##grade
show
type
##ord
after
off
quest
##if
##ault
nv
download
is
##read
question
ar
##ity
version
screen
rest
upgrade
##less
too
##ake
terminal
seem
into
sorry
org
ho
10
##int
te
##ary
##app
also
hd
##tern
support
fir
##ies
please
##ery
remove
line
direct
##nder
##ip
anything
grub
default
##ual
eve
##ment
opt
##fs
##con
##mb
fe
nvid
fix
fl
beca
lib
because
first
##act
##org
diff
nvidia
##urn
xorg
act
live
##itor
##og
though
someone
aut
##ug
might
even
under
##ast
ph
sw
drivers
##uch
source
name
##for
##fox
##apper
prob
comput
##sp
ext
##inst
men
stu
firefox
##other
much
syn
##ond
##fore
again
##play
##install
ke
sec
does
##av
##ager
pass
before
oh
maybe
fine
put
qu
repos
stuff
take
key
##ready
home
load
##ear
hell
##ule
##iss
mess
##ably
co
come
already
##ser
iss
eas
##sy
br
hey
computer
issue
cr
bl
let
mach
ip
manager
##ian
##ial
machine
wire
##xt
cor
menu
very
##ible
##ww
lapt
ah
##ft
vide
link
##aptic
##ple
laptop
##arch
am
##ize
##ces
probably
happ
##pend
##ix
synaptic
##bo
gre
##ript
##fer
##ak
##our
##ache
##ubuntu
sa
disk
without
##rent
##ever
pe
##lic
pr
never
cant
##ution
web
idea
thats
hello
over
free
www
per
nothing
##fig
better
usb
passw
##lete
who
##ound
another
##ild
loc
click
na
cre
mon
search
access
thr
##ude
guy
pc
##di
plug
##bin
dist
able
wireless
##ous
video
##ath
directory
cont
spec
lol
##kg
things
##ody
##ty
sl
##ence
##vd
fold
kde
enable
debian
##lf
edit
##ull
module
write
tw
ent
box
sim
script
old
happen
configure
poss
##erent
bin
av
wrong
lea
peop
el
wine
hmm
people
php
res
problems
mode
##body
those
guess
##sol
##put
##ient
##ically
##ire
create
different
##86
everything
password
proc
dp
##boot
ap
dapper
wo
##ep
##zy
##gl
bug
compile
actually
depend
##ting
build
ssh
option
##dia
bite
goog
lot
##eep
pastebin
##dis
##oo
google
correct
point
##name
dpkg
device
nt
most
share
##ki
##ince
##ress
through
##ang
em
flash
dvd
##ata
else
soft
##ish
restart
##mat
##ead
cop
##min
##cl
keep
##qu
##fo
copy
##gy
##ways
channel
ati
page
autom
software
##self
##ent
both
reboot
jav
reinstall
since
##reak
applic
bad
resol
folder
##gest
message
setting
##ither
wiki
##itch
release
port
application
possible
64
ntfs
intern
settings
perm
inter
var
gui
04
nor
##iver
java
call
kind
bree
##ume
##rl
sug
cur
min
##rc
xp
specif
login
doesnt
breezy
suggest
##sa
init
sd
exact
usr
##aph
wa
output
two
iso
while
##wer
##player
cho
##atch
stop
##ason
yet
gen
break
burn
##dm
##get
media
os
setup
fail
process
long
hardware
##ml
okay
graph
tool
prefer
own
##cd
##board
reason
sm
image
always
hoary
monitor
did
compiz
instead
ass
##lect
##wh
##alk
##iverse
either
easy
##vel
##ious
best
whats
gl
##itt
##ums
graphic
such
au
##cp
##ber
admin
##ra
norm
cp
gener
switch
##wr
##port
pret
via
nice
client
last
##ric
sol
det
internet
##ks
alt
es
test
##ah
foll
local
real
edgy
plugin
ans
##ouble
format
follow
installation
rou
heh
##dio
##unch
automat
pretty
router
mult
##ib
##ise
##11
permiss
mp
few
delete
many
##stand
anyway
##config
##box
answer
##ru
select
win
##ower
avail
##isty
pan
second
current
recom
##em
##ute
feisty
proper
la
info
around
top
connection
##ance
interf
clo
ideas
users
contro
post
##server
##mber
##stab
ram
thanks
##ouse
data
12
apache
##no
talk
##set
cause
kubuntu
vm
bel
understand
##ier
doc
##own
text
mplayer
##tem
turn
icon
wait
##ird
day
reme
vir
gdm
restric
disable
jo
sources
available
arch
fstab
game
##fe
gut
kill
exactly
head
##nc
sam
display
##32
their
##ba
##util
space
reg
altern
anybody
##where
##sole
fig
gutsy
##ost
remember
move
ls
##ci
host
figure
fun
##we
errors
##form
miss
hand
tar
fr
hear
ct
base
##uck
late
apps
full
brow
##ative
player
exper
once
place
##oup
options
bash
gp
distro
##ign
##ittle
##onder
grep
cle
pri
great
console
little
leave
ro
nautil
wonder
send
save
site
choose
path
end
cache
modules
mp3
exist
swap
nautilus
whatever
resolution
cool
##gb
eth
recon
##mod
##ieve
panel
##over
livecd
##ream
##64
ctrl
alsa
nope
must
##to
##ffect
installer
manually
samba
recomm
mouse
##est
wont
mac
##day
trouble
wor
##ical
theme
##ful
32
hardy
sess
16
##dd
ndis
##sent
audio
##odec
ms
slow
allow
##ote
main
##atter
##tk
##ze
intel
recommend
address
##iew
##vice
met
crash
normal
ac
##ences
enough
str
dual
ra
case
##wrapper
https
##let
##der
fre
dm
reconfig
group
close
fast
##iv
##ify
##itude
bas
##inter
##yth
cpu
enter
stick
suppose
##bit
non
vmware
html
virt
big
##gin
mem
hda
##ios
##clude
fa
complete
##itories
##ton
##ert
power
xf
hop
didnt
far
expl
believe
##cept
amd
##ages
exec
exam
ndiswrapper
##pro
##orrent
keyboard
ub
##eak
launch
xserver
these
##ular
nl
##ween
ut
##net
next
virtual
##ns
dh
specific
dir
##ens
reconfigure
backup
between
repositories
##illa
ext3
##com
id
appear
usually
irc
##ans
le
num
##aps
universe
example
sda
least
thx
applications
archive
##enc
aptitude
include
##system
ive
##ject
font
##riend
latest
200
guide
##ange
button
control
preferences
##mp
##ience
##rop
##disk
##quire
luck
high
configur
permissions
quite
stand
unless
env
mine
pers
graphics
tab
gtk
##ntly
totem
##ather
##ql
dec
simple
bo
shell
##lock
uninstall
rel
##ily
bios
unt
bot
dr
##haps
20
##zilla
##forums
require
##arted
effect
perhaps
bery
quick
sub
differ
glx
##ility
isnt
##ruct
beryl
detect
automatically
filesystem
repl
##ward
ubuntuforums
friend
##10
vol
yep
however
are
##itory
whole
19
hdd
100
x11
ones
sort
hit
##ument
lear
disc
learn
exp
session
##file
ill
printer
black
assume
devel
##ode
ftp
configuration
##odecs
number
interface
editor
auto
recover
mail
ret
ago
er
lock
press
replace
sk
##fi
vl
##sql
ubot
fat
everyone
##ourse
year
chip
enc
##ga
##80
##ask
webs
restrict
##her
ev
conver
vlc
experience
mb
##aim
stat
each
account
repository
prom
um
lose
##line
25
rather
15
cdrom
##ature
gparted
##chat
person
memory
forget
##side
remote
code
lang
##ha
print
manage
hang
##sid
mus
browser
##pad
weird
ob
##pa
somewhere
dhcp
##urity
course
bt
less
speed
rece
cert
xchat
rc
##xx
wifi
matter
##ark
myself
oper
##ices
##come
##rx
security
shut
firew
##12
music
extern
##vious
sit
##tent
##imes
mysql
trans
explain
hope
##ps
commun
##eel
fs
true
chmod
freeze
xubuntu
resp
##aces
until
external
safe
fgl
instruct
##hh
develop
par
##ction
##ista
repo
##how
flo
ping
simil
raid
mozilla
his
care
dam
##ger
fglrx
stable
##ogn
startup
alternate
ubotu
vnc
vista
administ
##inux
sometimes
gent
step
##plash
report
ref
easier
hour
langu
view
website
force
properly
volume
##ank
##ted
##mms
modem
pur
cat
##oc
amd64
difference
essent
word
##log
##24
buy
size
11
dun
speak
certain
solution
06
recogn
short
core
clean
hu
##edit
administr
firewall
gentoo
gcc
bar
prompt
dependenc
small
xmms
days
##ection
##full
hehe
similar
gaim
mi
binary
adv
##thread
document
fin
##uring
xfce
inform
nick
##vide
eth0
##ts
extr
standard
##ater
da
service
correctly
ya
war
pm
ps
community
him
away
lst
##plug
##50
##ables
dunno
currently
##ator
priv
username
bit
##rypt
##down
##par
col
##ense
hold
##ython
##sc
bus
##more
multiverse
instructions
dns
##ations
##erest
##arty
gedit
##du
##ik
##stream
showthread
ment
forums
3d
except
##right
bro
anymore
essential
interest
resize
itself
##esg
mind
fresh
url
##gn
md
##386
sys
##off
ther
dmesg
pop
result
lsp
language
np
howto
feature
libr
python
warty
ind
##ech
mic
mov
##ately
smb
##oment
convert
##rib
lspci
ir
oth
gz
##mit
information
pid
notice
during
modpro
feel
i386
order
xgl
solve
##ob
return
##linux
wow
wee
##host
wan
##ustom
today
devices
##ng
btw
##ksu
scan
strange
servers
others
##po
##book
fact
alternative
inv
##cho
gksu
applet
##utes
rm
chipset
##gu
plugins
function
##rive
backport
##ixer
modprobe
fam
##iron
custom
fdisk
note
##conf
years
sing
cou
ff
amar
minutes
provide
basically
##irc
month
completely
fonts
cu
generic
relate
mention
##ftp
suck
refer
##ouch
##time
block
content
moment
likely
model
##ppy
ifconfig
administration
flux
aw
recovery
odd
vis
dial
inc
sun
unm
permission
faster
entry
##ning
##fect
chat
##fully
##sl
import
gon
single
sata
##roll
14
torrent
apache2
gstream
recognize
alright
drop
##000
mirror
22
64bit
watch
##rew
tot
section
versions
##cut
cable
handle
codecs
blank
amarok
gstreamer
inde
##ph
##man
forward
manual
love
##arge
comment
stup
msg
17
none
##ply
join
##ner
rade
restricted
theres
xine
iw
ign
interfaces
yourself
##ories
stupid
##pri
ether
##pm
wl
worry
beta
headers
radeon
##ax
sever
locate
extens
damn
later
##io
contain
##icial
##acity
##start
ipt
entire
super
common
perfect
##ys
pci
newb
execute
192
ear
alth
specify
##light
##gg
patch
ie
24
##list
##dge
##600
dd
her
##olution
##ially
##ster
val
##ump
80
##most
##nto
touch
somebody
kinda
clear
ur
##ype
pic
confuse
wm
yup
ver
hm
unable
##df
splash
tv
although
##43
succ
ethernet
dell
mnt
listen
##root
sign
wlan
several
clue
couple
folders
date
##topic
packages
almost
front
screw
##mail
dependencies
iptables
##ube
red
extra
environ
##pc
##iar
pick
suggestions
tut
project
hours
icons
##ller
##sd
general
##ora
gim
err
inside
environment
acp
##ether
normally
fat32
00
ipod
broad
az
##3b
##ross
expect
graphical
state
saw
simply
topic
ali
##ass
compat
hot
rh
cli
regular
##sider
30
##rd
##fort
##icate
##ale
systems
evolution
##aries
fluxbox
##andom
##wise
##xp
light
consider
gig
##esa
backports
##vm
ignore
auth
eh
minim
##ne
ahh
mbr
sense
##hz
wish
char
offtopic
index
empt
defin
art
##office
lan
rid
du
special
##iple
basic
input
##76
empty
ce
haha
13
extract
record
computers
perform
acpi
168
online
begin
##ground
side
store
worth
orig
crap
famil
mk
beh
##drive
possib
##orial
meth
encrypt
##card
prot
hmmm
wel
##ication
bunch
tho
##space
rw
##amp
k3b
##ny
serious
##mbox
otherwise
official
uh
##oid
bring
past
gksudo
forum
random
fed
tech
modify
tutorial
##200
detail
nec
compl
ge
##back
rule
engl
gb
soon
pidgin
cds
##arently
regist
##shot
floppy
shortcut
rpm
partic
older
##tom
email
newer
wpa
del
##under
multiple
##ated
##force
low
als
background
##view
##rupt
trash
openoffice
processor
method
welcome
anno
fedora
cup
mis
skype
familiar
english
annoy
restore
alot
nic
directly
job
actual
stay
world
yest
##ooth
onto
cap
lay
unmount
##info
static
deal
reset
40
##des
purge
##usion
success
rout
vim
separ
##peg
double
task
hide
controller
##bt
profile
longer
azure
##ano
stream
browse
pay
whether
yester
filename
particular
advice
##eler
mad
uname
scroll
chroot
##resh
##xy
yesterday
##lier
plan
max
##nx
produ
##ten
apparently
desc
afa
##ave
level
##umb
##ms
##user
color
fsck
chance
exc
ubuntulinux
obvious
ta
somehow
firestart
localhost
##key
azureus
##ythmbox
night
limit
md5
att
##60
##dega
bottom
den
386
##bird
agree
oss
##ciate
hp
attem
dou
table
firestarter
##ked
##write
##emon
##utions
##format
##ops
##cm
earlier
##dev
pub
useful
room
esd
cedega
previous
attempt
launchpad
##cam
fan
above
gimp
tri
shutdown
private
cam
f1
##fix
execut
##au
within
mark
rt
##ties
##my
passwd
fair
noob
32bit
necess
adapt
compil
##dir
dat
unfort
##any
book
daemon
track
##aa
distros
x86
location
##ames
huh
sn
complain
half
##ane
f2
busy
doubt
unst
trick
count
properties
unfortun
activ
shoot
ident
finish
mid
choice
##ssi
##800
tty
automatix
pi
1024
gconf
sda1
prim
afaik
##ero
##guide
echo
##sert
months
separate
indeed
render
anywhere
important
movie
##su
often
nano
docs
eth1
##45
##77
inte
easily
repe
register
vari
exe
got
unstable
irssi
hack
##13
recently
hor
insert
op
chown
nfs
hate
exit
native
##40
##15
##32c
nm
##sn
##quest
week
##uss
##client
refresh
umm
virtualbox
##ars
temp
envy
leg
iirc
iwconfig
aud
respon
become
apply
metacity
micro
synt
directories
harddrive
fol
bcm
proxy
dig
vga
##row
development
##sum
che
drag
mother
18
emul
screenshot
pol
##si
opera
ubu
transfer
gate
don
prog
original
50
cent
##ov
office
curi
dude
die
distrib
sync
##press
sdb
vi
deny
everytime
##vid
whenever
pain
##ye
broadcom
##20
integr
newbie
hda1
##ffer
##32codecs
havent
menus
##ors
nobody
documentation
thunder
possibly
util
vesa
mor
she
webcam
resour
repeat
kernels
fusion
rhythmbox
arg
##ses
##uid
match
##iest
resolve
arr
was
library
##vers
##vent
##pose
sus
pdf
syntax
performance
##aker
highlight
primary
accept
dialog
yah
tun
##bl
loop
advance
sur
thanx
bitt
##wire
totally
rename
warn
happy
pcm
unix
extension
kon
form
folks
avi
hdb
wget
hostname
awes
thunderbird
rar
ins
atm
##ift
export
dom
sle
ath
unfortunately
##tf
##term
internal
ban
libraries
awesome
hr
master
offer
##ky
mist
##fl
##kn
ppp
foo
suspend
alsam
three
active
ubuntuguide
gateway
corrupt
videos
alsamixer
ado
##ium
instance
rom
syml
freen
cron
blah
decide
##page
due
blu
##rar
mag
##raid
##soft
large
life
##ffic
define
perfectly
compare
##cale
686
w32codecs
##bar
propri
grab
quit
60
generally
neither
phone
perl
equ
stra
img
##aut
ways
##icult
firm
contin
cy
oops
##dvd
acceler
onboard
specifically
gnu
phot
##30
##18
winxp
param
##16
symlink
geforce
pull
compatible
blue
datab
esp
ppc
##55
##ture
request
stor
kno
##pg
difficult
value
tip
overwrite
##he
easiest
3g
##dy
motherboard
domain
plz
seper
fault
##96
executable
bother
regard
##iser
occ
##ern
appre
##li
##forge
propriet
our
usage
##acter
emer
cut
##usb
status
database
##acs
hd0
smart
oo
locale
near
##17
accord
respond
qt
funny
snd
##db
##ries
isp
backspace
hum
picture
adobe
##bern
mostly
firmware
png
soundcard
hal
pat
lvm
mistake
present
aware
map
##dle
jack
startx
cross
##itle
uuid
straight
bind
management
along
suse
##sync
necessary
clients
##sides
sleep
##screen
secure
##free
compiler
refuse
anyways
##itely
character
##plugin
##tv
inf
tmp
appreciate
suggestion
ship
cra
pls
##pr
##saver
route
activate
curious
##iled
src
besides
umount
behind
adapter
ready
microsoft
##80x
##ron
sessions
unkn
##clip
##etooth
newest
upload
killall
hibern
800
ste
##33
ext2
##bug
item
pul
##ident
proprietary
##rate
##pn
scr
dest
avoid
kick
mar
sv
##direct
dep
bluetooth
##manager
yout
##ribe
bcm43
layout
vs
##az
openss
##lex
##vs
##loader
hone
libs
has
wlan0
rev
##sys
maj
batter
##of
##eet
public
fut
##99
pulse
unknown
ple
files
mob
design
connections
##isk
incre
xd
outside
storage
unrar
rever
##22
##ald
##clipse
vo
##ness
reply
smp
jre
obviously
wep
libdvd
libc
minute
##wards
eclipse
frame
##ities
##illy
opengl
##ability
paramet
fil
emacs
##ush
thread
##ons
spam
lsmod
txt
umask
##cast
phys
dvds
honest
continue
definitely
dead
sudoers
##howto
lts
##768
youtube
clock
pkg
##oooo
major
faq
sens
##ols
##gs
rip
##rec
dl
shit
ye
reiser
automatic
vf
conc
seperate
##ftpd
medi
weeks
##go
##just
remov
##arily
huge
codec
zip
tel
blacklist
god
recomp
tom
##70
ppl
lilo
expert
ic
ogg
cm
##ded
sshd
nat
##air
##icle
sourceforge
generate
bashrc
nonfree
spend
entries
##iet
##ledge
brand
dsl
##ino
helpful
personally
bittorrent
future
discuss
myth
##connect
maint
ter
##ock
assign
morning
beep
equiv
ld
class
throw
reference
rate
##25
##lets
vfat
mv
##word
string
resolv
against
eject
rad
battery
sel
afraid
cc
fro
personal
bz
wall
fairly
operate
##era
##arent
##pack
dy
tra
wtf
protoc
##ppix
nah
512
##tr
pos
reload
affect
##ii
plus
finally
rock
mix
##ho
##ubi
utility
##alid
opin
##ony
lem
slack
##ments
qual
wouldnt
authent
##appy
product
minimal
##90
21
xin
alternatives
##ows
osx
fully
lower
##aster
higher
verify
256
espec
##etch
age
255
##bus
wid
invalid
23
area
##cle
debs
flood
sch
brb
article
1024x
##66
quote
toget
packet
##iter
bootable
addition
recent
sweet
initial
absol
mand
##sen
msn
scsi
##ification
php5
automount
seve
##que
capt
flag
movies
crazy
wubi
decent
receive
magic
lab
##pport
gpg
twice
##ropri
seriously
imag
##imedia
cheer
together
final
##54
dependency
kid
total
28
##aw
mute
mixer
adjust
amount
recall
amsn
initrd
##arm
##uation
##dent
##sor
especially
cube
prevent
tran
debug
middle
susp
emerald
friends
polic
hah
news
disapp
##hat
song
##chool
knoppix
dv
bri
hav
##ism
bootloader
prefs
##sive
purpose
response
lamp
1280x
##str
##ital
##rep
##pper
hibernate
openssh
syslog
##point
##level
cuz
speakers
fiest
hopefully
mat
##itive
laptops
##wd
##oy
##irm
##emu
wipe
hosts
lcd
owner
cf
ice
describe
absolute
title
knowledge
squ
cvs
##lib
visual
shift
lag
resolutions
jpg
mt
##nal
##acy
integrate
dang
couldnt
sid
multimedia
##prise
argument
unre
alien
dump
fetch
gf
tweak
##audio
fur
gmail
eng
resc
128
ko
udev
##arth
fiesty
everybody
##zz
##bb
tools
seveas
burner
ble
party
1024x768
letter
camera
##98
symb
hdc
ant
school
##nty
disconnect
realize
##hq
board
conflic
photos
sudd
till
edition
xfree
hint
trust
dma
##ropriate
500
ipv
slower
##ency
transp
sudden
silly
uncom
certainly
action
screensaver
extend
dhclient
seg
##ret
hrm
##build
##fb
quiet
##alent
reader
##cape
notebook
white
##oud
##admin
erm
policy
hy
runlevel
ton
##oney
md5sum
company
##res
encryption
functional
chea
acceleration
conflict
##co
##css
car
glad
01
##aper
##oder
freenode
target
##ma
cursor
eg
confirm
glib
##stat
rescue
reformat
lack
##bm
utf
hur
ooo
vpn
ffm
ug
third
##pass
lic
##ifi
imagine
##ones
apple
fav
##oke
##ename
canon
variable
mate
df
extensions
quality
walk
##88
xterm
##zip
127
ln
1000
kdm
tree
##lev
dem
techn
yahoo
impro
ffmpeg
money
plain
##shoot
self
valid
##iewer
##97
##erd
loader
##ict
unplug
extras
fuck
##plit
##gi
##ates
dos
tempor
opinion
telnet
various
wmv
coll
tend
mm
shr
cs
equivalent
mkdir
##14
postfix
signal
hw
desktops
##support
bcm43xx
rsync
##antly
thru
assist
##red
##0x
shortcuts
##tle
##95
##reme
wasnt
tail
scratch
##bsd
yours
scp
typ
xxx
inet
maintain
##uc
##desk
sbin
##dk
##unk
##parm
disappear
further
complic
libdvdcss
launcher
##avi
logical
virus
ep
mono
26
##osite
appropriate
situation
waste
identify
rat
hotplug
distribution
svn
##cy
##sess
sty
suspect
##ud
thnx
##sel
##ics
flashplugin
friendly
successfully
playback
across
advise
##ization
yo
protocol
dsp
lame
tray
mp3s
team
pulseaudio
##ugh
##nce
accident
##rip
##mhz
alias
eye
om
downgrade
failed
##unt
##ites
tem
##cket
##quer
rf
##cia
##like
##kb
band
descript
engine
winehq
physical
buggy
##ilt
serial
multi
utils
players
##gears
ather
installed
##erc
##lt
fill
##olve
based
##orn
29
compress
##100
teh
determ
ops
##wifi
readme
increase
db
##ece
archives
2007
stage
##lly
rub
repair
2nd
panic
troubleshoot
skip
concern
atheros
erase
attach
##ority
dumb
cal
guest
range
complicate
##poss
##rible
filter
ugly
ot
jump
clone
usplash
##ontab
02
tcp
##ht
corp
##ete
traffic
##ball
hdparm
glxgears
hat
##serv
gdesk
##core
cod
pcmcia
vid
medibuntu
##23
dock
pent
ntp
kb
qemu
imposs
crontab
redhat
##map
mot
##nts
lsusb
nav
##uf
improve
asp
extreme
linksys
behavi
##ring
encode
##antage
depends
fit
hist
ipw
000
ju
##rag
resources
##mind
libg
realplayer
determine
useless
joke
using
##raw
synaptics
##mode
##comp
blo
##iment
sed
absolutely
##onf
thinkpad
ahead
perman
uid
##ibility
##levant
packag
opp
thumb
shouldnt
spell
impossible
fw
mythtv
##na
query
resource
split
recompile
slackware
##lx
##by
##ram
bootup
touchpad
symbol
##ific
blog
##nch
ess
rese
impress
##ats
slight
##iba
sad
uninstalled
effects
involve
777
meta
complet
tre
cmd
pentium
ahhh
wallp
occur
bugs
capture
##unes
##wl
putty
transl
usual
madwifi
27
##und
alone
##68
glxinfo
##sure
##sm
thingy
##ghz
##eek
incor
##cess
gnomeb
##mark
xv
##ecture
k7
mes
piece
risk
pointer
emulator
##iny
style
ipv6
direction
permanent
4gb
py
asound
specs
aig
progress
shall
##mar
sry
##af
0x
developers
##duce
##ama
mpeg
license
upon
gnomebaker
##500
800x
wich
##medi
##cent
mobo
convers
lie
##test
hook
##look
##iso
imple
poor
handy
##tention
fps
##river
checkinstall
opens
##order
gdesklets
const
##iness
maxim
##tes
##group
##cat
##wid
itunes
aiglx
entirely
2gb
networking
##rase
##wm
##eg
##19
##ersh
asso
lead
##image
smaller
center
forever
defrag
reiserfs
archit
##lon
eat
##block
800x600
preview
edge
frontend
##orrow
youre
gigs
catch
und
asus
sdb1
uk
##you
##itable
logout
implement
contact
navig
ing
##oe
gstreamer0
wallpaper
##rome
operation
xfree86
smooth
installing
cheap
nevermind
zero
##1024
places
audacity
js
history
failure
lime
##39
worse
##station
redirect
dar
ly
##erous
reach
label
3rd
images
##gt
optim
##28
plenty
commandline
damage
advantage
bits
1gb
##formats
tire
vert
##deb
cgi
manag
hurt
scanner
cups
slave
##wx
##add
##what
additional
##ls
90
excell
surprise
##wind
##oration
object
##34
lar
passwords
remotely
experiment
unpack
plat
bigger
mountpoint
functionality
wide
##pedia
2006
crossover
names
resume
architecture
##code
limewire
##75
notification
##apic
libc6
incorrect
1st
wikipedia
pure
binaries
sarge
frust
tag
quake
restrictedformats
heron
bz2
essid
ibm
kk
##not
guys
idle
excellent
spot
konquer
sell
rebuild
buffer
##pha
cover
xsess
##nam
##aly
##00b
enlight
##the
daily
authentication
gam
fatal
##record
manuf
##check
##ges
gfx
##tu
troll
partit
##ivers
athlon
oct
##kill
desk
backups
99
nix
##dc
parameters
array
webmin
i8
logo
legacy
uncomment
earth
mer
packagename
careful
##eric
netstat
filesystems
##la
##anish
##480
remount
air
##85
bec
quickly
suddenly
300
immedi
invoke
##agle
headph
wise
built
libgl
##aq
##erman
##hop
ifup
eventu
revert
sect
wat
pin
insp
arent
1280x1024
##eeee
aux
xr
tor
##d0
##artition
remain
##686
speaker
mass
manufact
libx
yeh
pix
drake
##ision
##ource
adduser
probs
##eld
##hone
##around
##ung
gt
tosh
loose
##aha
recognise
##desktop
43
##repid
crack
hence
##gig
##usty
cost
##auth
##ulate
##rake
relevant
digital
protect
recur
##safe
glo
pen
push
alpha
dark
claim
##grad
bey
xfce4
cdrecord
mins
##pth
##fault
##84
series
##serve
wav
thus
intrepid
cos
draw
teach
mpg
canonical
header
##width
##sec
640x
aha
pract
honestly
networkmanager
tarball
popular
torrents
konqueror
eventually
##fg
imo
makefile
php4
##ively
mobile
ti
70
found
isntall
express
developer
description
f7
##orate
workaround
platform
wierd
programm
mmm
photoshop
attention
vbox
prec
horiz
##uz
##94
twin
bandwidth
heck
tru
heav
duo
sat
##hack
##va
adsl
websites
tutorials
jdk
mesa
xen
##nut
locally
bridge
composite
lazy
sftp
somewhat
cri
null
##pod
##900
##31
bitch
four
##annel
agp
freebsd
printers
fuse
##74
loss
##ler
tabs
privile
research
beyond
##script
house
##iph
xsession
ee
##ison
workstation
##dp
##65
field
##text
enlighten
proftpd
##ied
favor
##arely
minimize
star
appearance
##cha
##bot
gm
pref
randomly
frost
ruby
toshiba
uhm
##da
div
releases
human
emb
##ves
nmap
radio
i686
##gle
##ced
partion
##licant
##vnc
univers
dynam
windo
tomorrow
beat
pool
##tek
##ership
##ex
##ings
nicely
##35
##urses
lucky
aim
ssl
spar
harddisk
unlike
simpl
bob
##ds
shad
meet
omg
fc
tiny
bansh
locales
05
techno
##iod
ii
rafb
hdb1
freak
##have
##fficient
face
tim
usable
##ercial
webserver
discussion
##tab
##imate
bsd
afterwards
prefix
xml
640x480
banshee
##ered
cons
messages
esc
excuse
gar
serve
appro
##roy
bugzilla
tick
##iable
##gre
crappy
corner
##version
nc
fawn
taskbar
##ackage
compone
##ounter
sigh
tunnel
apart
ade
##aze
modes
dialup
mal
author
legal
##here
##logies
managers
ult
yw
green
##did
typo
eff
##udo
##aby
mini
##ral
##ingly
blow
macbook
##ka
##82
easyubuntu
##win
ability
grey
jsut
socket
##iphany
accidentally
dan
stock
lsb
##sof
pres
45
slightly
warning
sb
##driver
mainly
removable
##aff
acer
##37
dangerous
n00b
brain
dists
reverse
##ven
scale
mandrake
gir
nero
pu
##dom
##inger
imho
corporation
##ilities
##ren
sony
bah
gpl
xdm
##miss
frustrate
roll
##pages
##senger
unus
memtest
epiphany
gib
frostwire
lat
commercial
sda2
03
##elo
##raft
layer
extremely
border
p2
##fish
crt
600
bright
pipe
associate
p4
##gz
##fit
flannel
75
lsh
##diot
produce
java6
parameter
privilege
##kit
atle
ubottu
mig
##ta
##joy
##ines
sounds
items
shrink
400
fx
##mag
coz
nickserv
##mi
gusty
yay
##font
unzip
sir
iwlist
manufactur
tnx
##inate
##ination
escape
fal
customize
##2fs
##atic
colour
period
delay
##erver
##uge
previously
realtek
marill
##names
##92
mak
apo
spin
surely
visit
candid
illeg
phpmy
factoid
recursive
lsof
##36
discover
fall
ns
ui
##marks
immediately
beagle
blink
twinview
relative
goto
configs
utorrent
packets
divx
##coder
indicate
phpmyadmin
700
xvid
ohh
viewer
##link
unsupport
##buffer
ownership
lshw
kt
solutions
len
##ional
2005
har
metap
pcs
##mon
idiot
mc
conky
##uses
frequ
completion
indi
xlib
##ril
budd
greet
##une
##ized
evil
aver
compatibility
unsupported
kop
messenger
atleast
glob
bor
safely
##42
snap
dream
tah
ips
dot
themes
differences
aint
gain
i810
preference
visible
family
nearly
##2k
07
enjoy
##mmer
tux
windoze
marillat
nut
##yy
##els
##stent
xfs
si
##lish
##well
fy
belong
feed
studio
0000
rot
prolly
clam
ai
removal
temporarily
##38
failsafe
##mentation
fancy
jour
##ken
volum
sensors
illegal
mencoder
82
slot
bout
gur
fullscreen
##flash
sched
ibook
tons
respect
ccsm
kopete
##ged
54
dbus
##les
depth
directions
emulate
##itical
webpage
larger
individ
bur
accessories
##hhhh
98
##als
parent
subnet
##ructure
ach
uni
grow
remind
cfdisk
39
##illion
thoughts
35
finger
##ivity
libdvdcss2
io
pg
bene
##change
cycle
##61
cale
##ght
mx
dc
gftp
complex
##print
lists
##now
replacement
flaw
brows
shadow
supply
##zard
intend
win32
steam
any1
lu
##while
routers
candidate
ipw2
destroy
framebuffer
95
mut
vend
##itech
mkfs
##cus
##ool
##ating
smbfs
country
deluge
accom
capable
97
imap
##selves
0ubuntu
secondary
##craft
httpd
gtkpod
fly
pal
##logy
gnash
amaze
precise
conv
workspace
creative
verb
uninstalling
arrow
idk
ugh
##ected
edubuntu
jar
ppa
##cel
##ius
##rs
##init
openbox
mobility
noise
viruses
voice
combin
encounter
yu
dirs
skin
xiner
libgtk
tur
automate
microp
below
##300
##ws
wheel
automag
alter
neat
spanish
strong
##ounce
context
fu
##date
hda2
gtk2
transparent
doom
lately
examples
awn
ru
##bind
120
##cutter
darn
volumes
gid
german
##led
diag
compaq
joy
que
noone
spare
april
adept
nu
van
wake
##ado
noapic
somthing
patience
44
ata
##windows
nx
append
business
boo
hfs
inspiron
logitech
##orer
##iga
##velop
minimum
eu
##78
pw
##keys
someth
ath0
enlightenment
autod
256mb
##tain
##andr
serv
dynamic
##72
##ifier
elsewhere
interrupt
embed
##rist
56
bs
ouch
##iro
heavy
eq
freenx
incom
gx
tight
2008
administrator
xinerama
horrible
ktorrent
##gear
##kon
##fy
##resp
imageshack
##bon
##mount
therefore
2000
brother
expand
42
##anc
acces
fwcutter
updates
raw
upt
##acer
timeout
kde4
explan
802
mirc
##ray
devs
french
identical
##mission
microphone
ghost
xx
trying
xf86
##aded
clearly
keyring
lt
250
colum
aye
runn
worst
binarydriver
applets
sequ
##utils
glibc
##ramfs
##kin
prof
pppoe
bye
##mo
readable
argh
je
comfort
##ctl
harder
languages
necessarily
pot
css
ist
conversation
##00x
##reate
prop
surf
interp
34
chk
cdrom0
songs
effort
96
##iant
shock
event
swear
##men
##52
##fm
gotcha
themselves
##ration
##alloc
nvu
hub
##ndar
hardly
tonight
##acious
works
promise
ubunut
merge
interact
anal
selection
navigate
##0000
##stest
terminals
binarydriverhowto
ek
tough
grr
j2
recc
iam
nvm
keyword
bookmarks
ich
proced
average
story
slowly
paper
kernal
screenshots
##ror
newly
origin
48
##rt
sup
allready
##plish
highly
vncserver
definition
x64
##pkg
flight
bat
mu
pac
qtp
##rie
##loc
symbolic
##ada
gw
##ya
hass
alloc
##aaaa
##ming
##ilot
##dos
focus
##weight
##omb
manpage
borked
autodet
anyhow
xinit
procedure
ner
upgrad
running
explorer
tune
done
ts
##3d
##passwd
##ros
offline
destination
##igy
##wea
##ulous
flick
badger
doesn
decor
gee
##meg
sdc
##files
faker
##aborate
eft
everywhere
attack
circ
aswell
hd1
realy
visudo
metapackage
frequency
sane
ded
accomplish
hassle
xconfig
##ging
##vert
behaviour
ri
badly
statement
tricky
regardless
benefit
reccom
85
unmounted
qtparted
nforce
##iw
charge
##qt
##esc
std
executables
pelo
segfault
08
8800
##xe
hex
lynx
translate
##bly
##91
calendar
anim
clar
left
widget
calc
ipw2200
915
supplicant
##fonts
##erate
imp
americ
tried
##strap
opensource
bore
cue
ng
winamp
irq
##understand
buddy
##ighter
gnome2
critical
inittab
behavior
games
##iate
f6
explo
##wxr
xe
##ools
##ups
choices
vsftpd
sis
prep
dash
reduce
elaborate
broadcast
audacious
crypt
sql
yell
possibility
meh
##ahah
patient
headphones
36
audigy
uhh
##head
##stu
price
rc2
schedule
lappy
htm
ubunto
symlinks
pend
##44
##viewer
##hn
parition
tracker
##mask
wordpress
partiton
baz
dualboot
pam
piss
realise
priority
##modem
permanently
##iki
##acom
propose
xbox
child
loopback
homepage
suit
latex
misunderstand
9600
wife
false
##ias
##night
##click
smtp
ele
git
##inc
rewrite
clip
brown
flashplayer
doh
gzip
##br
##iting
##ague
blame
##lab
provid
chain
sometime
##ribute
oppose
38
pad
##bur
sum
workgroup
unlikely
aff
harm
xrandr
individual
tb
libst
authenticate
browsers
dedicate
dict
##sed
reliable
occas
##ape
##aris
sent
recreate
##asty
migrate
##73
##its
hte
##fold
##ribly
terrible
behave
initramfs
early
taht
##ensive
##ior
backend
technically
technical
##freak
partitioner
prior
##1200
dupl
alsac
deps
netgear
drm
##hand
##arant
updatedb
512mb
46
##vest
junk
spy
halt
##cs
powerpc
emulation
mandri
isos
33
wizard
playlist
##ddle
amixer
konsole
blender
mhz
##mas
forth
##ands
accessible
wic
##icer
##adm
awk
##wor
structure
bytes
tex
##123
160
cpuinfo
firewire
##rike
##ella
exchange
subject
parse
math
temper
##pace
powerful
temporary
crims
ekiga
09
libstdc
shout
##apache
404
hose
##gen
anj
fn
edu
shipit
comfortable
runt
willis
##lessly
charm
typically
stability
submit
steal
lm
##uta
trig
among
parall
bloat
mandriva
phigh
gk
##21
wild
processors
iv
psy
##ride
invest
variables
fyi
celer
sr
initialize
hel
hmmmm
differently
transmission
lightweight
requirements
squid
vanilla
cry
round
gnom
dum
##anch
ldap
essentials
presume
gc
jrib
##dated
##move
thin
##setup
##download
position
fb
##icit
##gm
utf8
755
##spaces
photo
##wave
##asc
##sted
kinds
nickname
constantly
ral
##48
sendmail
combination
##ifs
amule
##ncy
##zen
##atly
ooh
global
prepare
##ris
##rel
undo
nameserver
upper
##oom
howt
unoff
uncheck
guarant
sector
verbose
sequence
cell
dj
e17
##path
##26
components
awhile
fee
cancel
sf
##splash
dosent
##arte
spit
##ught
p2p
brightness
##escreen
rythmbox
sile
installable
##plete
rotate
##4l
adress
busybox
counter
##np
ensure
##match
favorite
egg
##ling
wma
duplicate
##fre
hash
comb
intro
java5
solid
anjuta
cn
##base
wif
flac
libqt
hehehe
128mb
manufacturer
originally
hund
##ionally
workspaces
node
scar
unlock
vendor
##dly
##wall
55
ikon
va
aside
sym
unbuntu
blind
ax
wacom
##awn
ifdown
poke
sadly
youll
offic
sdl
gxine
sorta
theory
##med
unn
fool
libapache
methods
guarantee
##oh
##ola
writer
tha
stall
neg
bitchx
sparrow
lj
##eme
looks
reasonable
segmentation
celeron
nasty
meg
minor
discs
tablet
terr
dcc
gnut
##rud
liter
pip
##ract
outdated
organ
thankyou
slash
gibbon
snapshot
ini
unalloc
holy
corresp
trigger
rmm
##eee
hole
slid
nicer
hes
pir
ssid
##rell
autore
##forward
warcraft
shrug
clamav
journal
mr
##ins
concept
upstart
permit
kvm
##den
fiddle
simpler
wrapper
achieve
fork
mdadm
inetd
ao
compar
##ined
arguments
ncurses
san
##71
##pendent
happend
##alled
##ured
##ously
##zer
repartition
frag
automagically
latter
##wo
##asure
##ismet
hundred
unallocated
##pi
nod
pastebinit
experimental
allocate
oem
unity
products
runtime
lighter
mask
vague
##1050
hahaha
transpare
alsaconf
cook
tuner
mint
tcl
xscreen
market
##ared
guid
acr
subversion
150
correspond
rmmod
##clock
shoud
##abber
paths
midi
fake
##uu
##ley
member
trace
satis
ikonia
##ew
seems
superblock
temperature
zone
libflash
heres
##ober
obso
kismet
m4
##ays
##gent
obsolete
hl
##rix
activity
##vt
##orm
##ope
proceed
jap
##ali
scripts
belive
christ
avant
imagemag
hda5
aliase
##romedia
writable
##emy
beaut
spread
positive
##rob
intell
utc
gv
##nu
expen
abi
freque
admit
crimsun
ralink
37
vt
widescreen
##rol
shar
override
pause
distribute
##wiki
sda3
##mer
review
##authority
ghz
##idently
essentially
dvi
officially
mst
ann
##oread
disag
fish
unofficial
##tml
incomp
##9660
tm
##osity
##icon
lirc
upstream
starting
bud
macromedia
provider
gnutella
2d
66
##yg
caf
acroread
sea
unav
branch
gpu
python2
##guy
rtorrent
disagree
okey
mys
howdy
pow
unde
phil
bla
ahve
sda5
practice
autoremove
##upp
logon
##auto
mas
##0r
explicit
october
##ae
##kid
##vell
##resol
##isco
mtab
bon
nom
son
sick
##jj
prism
6600
goal
seek
adm
groups
rwx
bleed
xf86config
bmp
approach
5gb
rarely
xar
modern
iso9660
hda3
towards
alac
api
accelerate
wp
ack
est
untill
rt25
##ues
bear
##boy
esound
tx
##help
##400
bed
##installed
triv
xscreensaver
luc
##used
agent
pointers
preferably
converter
mismatch
transparency
##ners
##abilities
##oooooooo
analog
xmod
##56
strip
albu
compizconfig
##93
rss
##istent
##ban
ofc
peer
ubut
ljl
1ubuntu
dll
##hang
rely
filenames
waht
particularly
explanation
der
zen
nickrud
envyng
x2
ben
prove
exclude
##mbr
guru
potent
vfs
##ario
getdeb
##ndns
une
skill
maximize
imagemagick
kaff
ought
##zone
##iling
enabled
icewm
parallel
mom
ss
##bs
##ef
##uego
recomend
broken
dyndns
shockwave
sentence
desp
##uput
ignor
demo
aplay
hz
##rw
safer
solaris
winec
instruction
clarify
bull
bluefish
##3945
rude
##cont
##oul
persist
##corefonts
pate
dose
lid
enemy
ctl
macs
alacarte
##band
five
recieve
anti
fight
dad
abort
##spot
headset
##resolution
cpp
fore
##ield
autost
production
2x
##tion
suitable
##open
hog
doe
##uth
##aint
utilities
insane
mice
##ended
appdb
bum
gkrell
kd
noauto
downloads
sshfs
unavail
##ocs
body
##old
unsure
postgre
scheme
bre
##osh
selector
##drop
versa
lex
detection
chipsets
profess
cafuego
thous
stre
gah
userm
obtain
ps2
impression
ia
zoom
fixmbr
##speak
signific
##54g
aa
kino
##ned
##irus
seam
deboot
roam
aka
megs
flame
bell
##ina
chine
unload
##cii
evince
convince
sil
reading
swat
quicker
ttys
hrmm
treat
relatively
##ivate
untar
horizont
howtos
pd
##vf
etch
powerbook
quicktime
##ornado
events
portable
dirty
purch
ubunt
spyware
tap
##sk
##01
##ption
student
subst
chinese
p3
libp
transcode
superuser
infr
optimize
million
antiv
hyper
compression
expensive
xmodmap
ou
pit
tgz
##lay
##url
##ourage
##ooo
flicker
libapache2
rog
vice
xm
rules
variant
ummm
equal
column
bun
pp
sar
six
##select
combo
##astic
centr
territory
las
ttf
##room
ubuntus
iface
mp4
pici
argue
diagn
autodetect
autostart
##mand
##esh
successful
maximum
vertical
gkrellm
gun
rough
shu
supposedly
curiosity
incompat
purchase
il
##ipp
beer
surr
bob2
tightvnc
##eine
##buse
laugh
belkin
biggest
boy
31
##tun
urls
vcd
moz
definately
university
postgresql
wherever
coff
switcher
rofl
cisco
jord
station
mpd
##tool
popup
lp
strace
configurations
ff3
recommendations
editors
retard
unavailable
##iff
##unar
juicer
52
g4
ascii
2003
bazhang
seed
##700
videocard
unmet
##new
natively
technologies
biz
vml
##ances
##ref
reph
soundray
optical
smbpasswd
services
##studio
aliases
surround
pxe
apm
basics
mstt
unp
netboot
accel
##111
distributions
congr
##oute
bypass
selections
carefully
##jet
noth
##ational
fastest
ont
##aid
##rid
manpages
bras
toolbar
physically
##ifications
##isofs
cifs
##ege
nowhere
pmount
rich
tee
##gtk
##iculous
orange
##ails
retrie
modems
duh
kate
pwd
##aul
wher
ef
##87
comand
desire
65
whit
stack
cpus
sample
dong
##stick
synch
##anese
technology
rephrase
sav
##uase
protection
collection
centrino
sams
envir
barely
km
sig
ten
thn
##isc
drink
newbies
cupsys
faulty
sensitive
xargs
jabber
tie
vino
##igate
compos
debootstrap
768
fell
resort
logins
##sense
trivial
usermod
g3
thore
swed
macos
reccomend
exploit
##idocs
2004
##cr
##ancy
inks
anytime
radar
bele
imply
cards
ftpd
libdvdread
ultimate
probe
working
choppy
##ancies
b4
##uen
##land
rege
had
fglrxinfo
incoming
grip
pard
##omet
redo
assum
mutt
literally
japanese
patent
msttcorefonts
ppt
##83
##acle
trit
##rict
inkscape
##46
notify
60hz
##freq
horizontal
antivirus
deep
shared
##opt
##ien
##king
preserve
isa
locations
reconnect
related
despite
##ja
##je
thunar
##ergy
candy
##139
thumbn
becuase
unexp
winecfg
##29
wrt
installations
john
1440
rtl
wicd
combine
diagnose
instant
scen
##izer
assistance
mysq
jordan
##ecrypt
##loy
testdisk
rpms
hid
##ateg
saf
bittornado
xinitrc
bog
gray
foob
vncviewer
kaffeine
samsung
ish
##51
exa
##urate
outlook
lookup
desper
checksum
programs
keys
roller
eee
##k1
suite
##loaded
uncle
##place
flav
##process
forg
bak
mime
od
##bage
##jo
imac
subdirect
pardon
cas
ect
shame
##graph
10gb
eggdrop
ace
s3
vb
##itute
hunt
ntpdate
retrieve
eb
nop
creator
cpufreq
hotmail
advanced
elect
fri
addons
exception
smbclient
##package
apologies
libqt3
controll
powernow
sysv
broadband
unusual
bill
estab
##inuz
##olf
swf
artwork
9200
nali
yer
##dl
dog
grant
whereas
coffee
ds
wx
##xxxx
respons
kr
yum
##phan
pppo
templ
ul
react
unused
terminate
accidently
arts
lease
xdmcp
diction
bare
bench
wifidocs
sufficient
##users
mods
curse
fry
##dn
##iqu
##59
##opy
##ighb
openv
dependancies
pointless
projects
tomcat
headphone
garbage
strike
changelog
##ggle
decorator
vmlinuz
##only
daemons
sectors
nalioth
a2
##tin
##uster
preinstalled
checkbox
capital
mysqld
53
ken
karm
##icious
suff
##odes
recorder
##ascript
vaio
pod
secs
kdevelop
blackbox
unusable
b43
eps
cairo
heya
funky
1600x
square
abiword
bb
batch
whichever
flv
leak
reconfiguring
capabilities
teamspeak
recursively
##weaver
frequently
ske
wil
##gard
tryin
##inks
devil
compilation
truecrypt
##onkey
##onym
euro
ofcourse
92
ey
pata
joe
smoothly
establish
efficient
pun
##ike
avah
carry
demand
unexpected
47
dav
foot
kl
##pilot
##clus
pattern
hibernation
smeg
##ao
##can
cdimage
ohhh
##cap
##erly
##stro
netbe
javascript
##801
opensuse
pirate
2f
631
blkid
progs
beautif
explicitly
fd0
conven
swift
signature
row
tritium
geek
vary
xs
zcat
##ications
getting
strict
##ips
rtfm
ball
##za
##ety
emp
insist
beleive
foobar
tk
##login
addr
connectivity
mike
##gnome
attitude
libgtk2
investigate
##ij
##mux
##rier
palm
67
jer
lost
heat
defect
college
##fps
shop
looking
cold
1680x
##username
wit
##jav
##mach
usefull
lil
##rrrr
slug
girlf
j2re
##din
##ih
unf
quad
closer
announce
##150
##oph
law
ac97
##secure
dongle
jpeg
toggle
exim
bootsplash
##uggle
awful
registry
##sudo
aust
sal
##27
##econf
adding
truth
glitch
##web
##questions
netbeans
ease
##some
##eech
pav
starter
abuse
nar
##eth
##pping
soo
partimage
keyboards
beginner
alex
vul
##orb
backwards
fakeroot
915resolution
loud
measure
##ampp
##ped
repro
swapon
ps3
manualy
errm
ipw3945
57
cx
reserve
habit
whoop
integrity
programmer
interpret
49
##sums
##acpi
sock
usa
intent
frank
universal
girlfriend
ky
udp
##gth
##inoc
win98
##video
tty1
##heat
enviroment
111
dut
##81
##llo
whatnot
##ister
whoa
subt
openssl
medium
opposite
yellow
gcj
900
cin
cna
porn
win2k
succeed
assistant
##uputic
lexmark
##blaster
recompiling
motu
tld
##ecess
w3
##47
##savers
pptp
1680x1050
dab
flex
sux
pak
##type
wins
erus
favour
dreamweaver
72
rdp
deve
somone
keybind
emu
##icaly
##xxx
dice
##dr
##06
##pis
nol
heart
wave
recommendation
bots
precisely
##menu
categ
##track
exaile
dmix
##guin
stage1
59
sab
##ving
thou
##ica
##ecked
weather
timezone
fear
flat
results
errr
uptime
satisfy
##auputic
##itate
##see
screenlets
typical
rt2500
##anta
retry
roger
weak
##geek
grub2
navigator
ubuntustudio
wpa2
1280x800
ware
##eer
death
instalation
##shark
overheat
##ango
ipv4
##lin
##gam
##fire
##bex
misread
openvpn
cow
k8
tink
##utter
shore
cluster
spamming
rare
tht
intall
timest
lucid
professional
brasero
erusul
wvd
dim
tracer
loading
afford
dummy
wvdial
jes
russ
alert
##andy
neighb
##istic
simult
basis
implementation
tt
##case
asse
autocom
engineer
airport
##folder
thoreauputic
saver
##aunty
fetchmail
3945
mepis
commander
creation
raise
harddrives
##blows
classic
feedback
boost
##dump
##89
used
ard
virtualization
ridiculous
1600x1200
omp
tro
percent
portion
explore
avahi
ring
sate
sip
##eat
##bul
scary
unic
documents
ltsp
bul
##41
##war
##llite
useradd
highest
g5
jaunty
ris
##ana
gold
nics
pkgs
puppy
gs
king
##gate
##resent
netmask
wireshark
decrypt
tvtime
maintainer
tbh
aster
bg
##son
whatso
memb
##asm
dia
dif
##abit
##activate
diffrent
##versation
ig
kpkg
##67
##alone
educ
##configured
20gb
publish
##mao
bloody
##control
ital
cond
##ited
screensavers
horribly
8600
irr
##rack
reject
##isation
dear
noacpi
logic
debconf
persistent
communicate
##fa
##vin
incon
##ppies
booting
netbook
woody
runlevels
##refresh
shorewall
questions
hdx
messy
avide
experts
##phrase
asoundconf
ba
ry
rx
anonym
##amba
whereis
slart
copyright
acrob
hdds
sky
hasnt
component
jam
##4linux
##with
alive
disks
actualy
konversation
uncommented
flawlessly
psych
wir
dow
##isions
orinoc
updater
afterno
standby
3000
jvm
##x2
manip
partial
struggle
8gb
nowad
closest
orinoco
ft
##mu
standalone
regularly
avidemux
afternoon
9800
udf
vv
ze
##bble
anc
mech
workin
##grub
presum
theyre
directx
644
sdk
corruption
occasionally
laser
satellite
whatsoever
acrobat
pkill
##nn
##anth
extent
nowadays
3gb
##elt
nets
buntu
100mb
forgive
41
##kar
##erely
##plus
grave
pendrive
666
fox
rer
##9c
lif
vent
contr
sites
pico
succes
##domain
ol
##ker
thor
beg
##ady
bummer
flush
passphrase
hahah
dictionary
4x
51
aah
bal
jim
tu
til
##lus
##gish
64mb
##py
##fu
freq
firewalls
protocols
uncompress
thre
rightclick
trough
enterprise
automounting
1440x
jason
##dot
##62
##x0
##sens
phrase
standards
80gb
945
rdesktop
##hr
accurate
wonderful
irre
cyg
svg
massive
##orbis
tldp
oses
##count
##but
suffer
alarm
intr
gear
##fw
##rox
##ula
freedom
drwxr
xev
unnecess
pppoeconf
karmic
##jack
##mic
##outh
##ots
1280
decision
##2004
former
translation
widgets
shoudl
tinker
june
befor
itll
dod
##scan
misc
apolog
ompaul
pas
sue
gnomefreak
overall
taste
bzip
powernowd
traceroute
fant
##bars
##etype
anyth
shape
testing
indic
alternatively
icq
subtitle
m8
##oto
represent
drives
contribute
##965
pacak
022
dk
f4
ow
##b5
theor
beside
##shop
quot
headless
40gb
aoss
ber
##run
##media
trail
bruen
##duct
iron
acceptable
shoutcast
negative
##ials
##flag
laggy
gmplayer
##2000
##eeper
afk
raid1
##sdl
##printing
nuke
keywords
cygwin
gather
rig
incl
##ssss
hiya
initially
##scribe
##phone
automaticly
silent
asterisk
aterm
lmao
##hog
yeap
##ife
pop3
pics
cyber
becouse
pgp
land
ww
##orter
dislike
secret
length
risky
e2fs
lg
led
nas
pet
##oint
offend
homedir
madpilot
insmod
swedish
ancient
81
oc
summ
allright
webpages
whoever
clever
##tools
002
sluggish
austral
5200
rox
##0n
dependent
##ogether
unmounting
bookmark
##eeeeeeee
unicode
ay
apl
tak
##bid
##vc
menuconfig
didn
centos
dialogue
f8
sake
##vr
deactivate
grand
freec
trial
central
##dsk
substitute
presumably
ditch
jd
xwindows
dozen
##izing
soundblaster
region
greatly
transition
ni
##uous
dissa
decoder
##retch
1440x900
##iton
intensive
partitions
subsystem
cheers
dlink
dissape
sor
##ai
soem
oki
clicking
automake
simplest
smbmount
##ngth
having
unreal
unique
aol
xkill
##nest
##vo
##uted
htop
640
hardwaresupport
boss
difficulty
8139
dwl
jus
insecure
##etically
problematic
ruin
f5
f3
winblows
ddr
consume
synchron
rage
v4l
##naptic
##mare
##maps
##default
chrome
arm
synapt
169
painful
vertrefresh
ia32
simultane
dur
##02
##access
advert
diss
libsdl
##ibs
libglib
82801
58
gree
pon
##57
##zf
bee
addon
##ubar
winmodem
rob
modeline
gigabit
strongly
upgrading
##touch
novell
spo
##ositories
dmraid
excite
emerge
comparison
hundreds
flip
libm
##ully
reflect
ga
ieee
mir
pt
spe
chee
guis
##installing
robot
deliver
cfg
incorrectly
thousands
mile
por
##asp
ext4
##102
clipboard
bruenig
lc
allways
##ander
south
environments
##sistent
collect
conversion
rerun
83
bast
ose
##ores
ang
whose
chris
arrive
study
queue
responsible
fd
fm
##val
doll
ut2004
ultra
significant
linuxquestions
unet
train
rootsudo
obsc
completly
libxine
7600
##enge
chall
everyday
eth2
stats
##gui
dvb
##bbbb
aspire
associ
animation
hs
lite
ordin
wik
buck
##umble
hardrive
##ovo
aac
jon
##dit
stump
stretch
kern
planet
budget
album
ari
ehh
hammer
ash
polish
##burn
zsh
sth
exclus
commit
intu
overkill
##locate
baby
gst
##fc
##active
nightmare
libdvdread3
unetboot
88
kan
wmp
zomb
oracle
abc
encourage
horizsync
doom3
##masq
congrats
unnecessary
bi
geck
orient
linus
scim
pair
links
amaz
dhcpd
gigaby
responses
##iconfig
winscp
hcd
psp
##kk
##ulator
msi
##snes
integrated
voip
timer
interactive
##java
76
wg
##device
whois
rc1
captive
chkdsk
italian
kitch
yab
##dns
##atory
##ulation
##achable
320
opinions
aspect
truly
strength
incompatible
ny
rap
##uer
##isp
spawn
sais
heheh
backported
##blah
calm
fakeraid
gth
sans
##vi
hds
throt
elim
nonsense
x11r
amaranth
straightforward
nerim
sympt
convenient
wn
##ervers
wha
noh
blur
ipconfig
smoke
factor
brief
##after
manufacturers
greetings
desperate
eeep
doable
##ified
##action
headache
specifics
floppies
deprec
fuj
jan
tks
vp
##maker
grin
sticky
hotkey
symbols
eterm
fuser
vob
##rant
##bound
##post
portug
fax
water
##oen
##hs
knwo
##dog
engin
semi
kewl
bugger
##321
manuals
maker
kdel
vulner
jesus
indicator
gecko
86
##ereal
cdrw
regen
damnit
timestamp
mechan
bc
nd
xcom
##lame
inch
##etd
##ldr
##ctor
appe
recovering
cleanly
integration
dani
unetbootin
5900
gdb
hpl
wols
##ets
filezilla
hedge
ideally
monkey
curl
smile
administrative
unreachable
233
aj
zsnes
##ui
notifier
isn
slap
unmute
clueless
regex
rose
analy
##eting
forbid
installers
girl
thumbnails
condition
symptom
kom
##brow
##tag
hows
speech
constant
##fined
##adv
compute
synergy
usbdisk
##dibly
reside
weekend
oooh
russian
f12
gy
sand
xset
##bet
##586
##fr
##f2
##sty
sooo
aticonfig
123
capability
ec
xt
##79
fixres
road
invis
swiftfox
reproduce
devede
tat
tls
##oin
butt
caps
dpi
001
insult
frogz
dutch
ordinary
yaboot
##num
##hol
tomb
##anet
##ari
reck
ideal
offhand
army
xxxx
somethign
europe
bzip2
eeepc
kiba
nature
wc
been
##anel
doens
adaptor
xlibs
flavor
ion
sister
tz
wys
##qemu
##asa
debate
libss
pannel
incredibly
liek
interpre
circum
wpas
gthumb
kdelibs
62
ja
nr
##bed
##stop
whine
##atest
precomp
starters
plugdev
distort
altogether
mainten
organize
podcast
frogzoo
wth
mapper
trad
writ
##mmmm
postg
printing
incase
separately
lenovo
philos
strictly
city
d1
lap
##search
gover
some1
##aks
##encies
blackdown
matic
blogspot
pixel
x11r6
aww
pb
unch
##imit
##oser
remeber
fund
##guard
terribly
latency
##worth
potential
bundle
epson
anonymous
110
gall
kit
canada
##idence
##pent
phase
audi
evo
##backup
iceauthority
throttle
deprecate
mill
##cot
##69
##ccess
wrap
video0
sli
##dma
glade
254
fluxbuntu
ppp0
slashdot
emu10
nolapic
wpasupp
2k
6200
bust
##tb
##915
readonly
101
##anger
##address
advertise
wysiw
63
6800
ape
##mate
##hting
tony
##aring
proof
unop
tring
trade
decode
xcompm
84
ka
wom
##ti
##mac
##orak
##step
manger
connector
correction
volunt
american
gvim
subdirectories
e2fsck
fg
muck
rsa
##rease
sev
tele
md5sums
responsive
segfaults
wpasupplicant
bork
##mble
##achine
autop
raid0
digg
webcams
rtl8
beautiful
challenge
vorbis
##sw
helper
##ector
confusion
graphically
pretend
id3
hacker
matlab
somethin
benchmark
graveman
engines
interpreter
kdes
mil
x800
##8x0
therm
##api
supported
apic
##nost
relation
##802
nameservers
battle
eliminate
precompiled
xcompmgr
xampp
shtml
##oding
paint
optional
ethereal
courier
##aaa
##blocks
builtin
sdc1
bank
##fd
##ament
writeable
dhcp3
travel
mpg123
##world
fv
##etic
scree
afric
##epad
portage
superior
trem
##gigs
fragment
compositing
category
4th
##hor
someting
netinstall
naut
acx
frees
actionpar
memtest86
j2re1
narrow
intuitive
reckon
cough
fac
hil
kqemu
sg
xauthority
zx
##bish
##lated
##itsu
notepad
stere
##ille
shuttle
float
unmuted
4096
tp
##ev
scd0
intel8x0
paran
shortly
mkisofs
tune2fs
regenerate
tomboy
din
x1
toy
doen
instantly
stab
consum
ipods
sensible
xinetd
suffice
obscure
586
dx
felt
##c0
med
weight
##snip
articles
skills
wirless
350
71
gif
w32
yor
##uk
deam
##ised
md0
wheres
ebay
w3m
apologize
invisible
camp
gdeb
tftp
##bios
##ami
unit
mounting
104
##iance
relia
iwl
revision
##window
consult
helix
hedgehog
gh
iii
tig
##bee
##lie
stress
heal
configurable
msgs
adapters
knock
bleh
stdout
xsane
shred
alg
interesting
natur
dosbox
irrelevant
ak
peep
infect
##ppp
##oks
##ocats
howtoforge
lovely
8080
##icated
usualy
defragment
incomplete
68
lfs
xc
##rm
##master
##fil
##oun
hair
proberly
xpress
##cards
bcmwl
nsplugin
ubunutu
neighbor
hplip
i586
rear
bump
overhead
slim
dmrc
midnight
soundcards
fantastic
fujitsu
maintenance
philosoph
actionparsnip
witch
woud
##hm
##aches
genius
hda4
ehm
##zzle
##tuner
bk
lx
##pic
yourusername
nex
plf
poll
ntldr
missing
redund
##looks
slider
postgres
eww
merely
nort
##owto
sto
##abg
pocket
defual
overclock
##ncurses
acid
##clean
sparc
recoveringubuntu
m3
nub
##section
##isy
soul
seth
termin
probly
dependancy
reconfigured
effective
130
beginners
capacity
noobs
cheat
databases
##onsive
decorations
introduce
irritate
wysiwyg
paranoid
cord
hh
##v2
##ito
wht
##inder
comprom
abit
triple
##dentials
hdc1
##kia
##tpd
greatest
core2
insight
mta
unrelated
consist
masquer
template
psychocats
nohup
pnp
v2
##ji
##49
##eeded
known
okie
uns
##abe
realtime
gpart
rcs
libssl
360
tc
redownload
##uration
##ificate
##ipher
identifier
layouts
885
xaw
##c2
outgo
##ifty
ubiqu
subprocess
operations
unresp
cheese
airc
lord
##eter
partions
enh
##upgrade
##izations
breakage
privs
urgent
infact
width
roughly
assemb
manipulate
dodgy
australia
govern
emu10k1
volunteer
fer
ku
mont
##iy
##rough
ren
hald
##ila
##aky
decl
decrease
effectively
cleaner
gimpshop
##stray
m4a
members
stereo
gdebi
xy
##53
youve
##pple
trip
humm
cheaper
licence
libflashsupport
cineler
autocomplete
angry
##afterinstalling
ml
v1
wen
##kr
##rog
prev
##bert
win32codecs
userspace
walkth
gurus
infront
##afterinstallingwindows
180
gale
hola
isol
mich
##bd
##1000
##aten
intact
keymap
answ
##network
sda4
fat16
similiar
##mysql
songbird
brill
demon
##kbps
##fx
##sto
nokia
semp
10x
libncurses
crow
softwares
expose
11b
rmdir
squash
isntalled
##yyyy
controllers
ftw
kcontrol
numlock
para
urandom
improvement
galeon
2ghz
9000
p1
##uh
##yt
dove
##pped
windowsxp
##icks
minus
##iously
fron
pms
awake
basicly
emerg
programmers
sharp
tradition
recoveringubuntuafterinstallingwindows
compromise
cinelerra
650
ale
wolf
##ole
##sch
##03
##ader
goin
apton
pray
freedesktop
setups
##wheel
gdmsetup
greater
alrighty
##prit
practical
joystick
pita
bomb
dro
fash
sin
##uall
rez
meant
chill
lookin
##irt
rootkit
hd2
glass
interfere
warrant
##folders
nspluginwrapper
slo
##dt
##ey
##ato
rele
unc
sex
situ
framework
construct
penguin
approx
##rq
##tt
##tech
gettin
repost
everyth
##spire
##problem
presentation
majority
##lookup
##ygun
mur
##ju
anac
openbsd
certificate
motd
timid
latitude
columns
america
signatures
unchecked
defualt
jig
mj
pts
##05
##want
##icity
##ldonkey
byte
##share
showpost
quanta
blaster
amen
decom
mkinit
ignorance
ventri
simultaneously
bac
jum
jfs
nifty
rite
tis
wast
##mouse
##2d
##esk
systray
##ilion
##upgrad
arp
pcie
hda6
11g
##html
700mb
aptoncd
pilot
##uff
##live
##from
##alling
chm
guard
reasonably
displayconfig
indygun
independent
uuids
recompiled
labs
grrr
intelli
bod
mit
##oon
##max
whil
setuid
meaning
thingie
credentials
slide
requirement
hdd1
rubbish
250gb
frankly
zombie
94
cul
dare
ness
uss
zlib
thier
##eration
##chain
compet
checkout
gpm
storm
tcpdump
deskbar
theoretically
gallery
dovecot
87
##robe
##odoo
linuxprinting
span
winex
woops
xpdf
##ension
numerous
aspx
undefined
david
unresponsive
won
##a1
##63
##llll
##arre
conn
dvdrip
prive
##zzzz
journaling
##uable
##bie
##ved
scal
pron
building
curve
dropdown
##mydesktop
halfway
piii
accordingly
libxml
56k
0222
enhance
sempron
lpr
mart
##ding
##58
##orphan
##iti
##etwork
##otify
staff
convent
upset
gnup
servername
ircd
cupsd
##auge
domains
fashion
nag
##wa
##vey
##icom
##dest
adn
unrec
aval
lots
strangely
ff2
acpid
lowest
attribute
judge
ubiquity
d4
##bc
reve
hay
stan
fileserver
##ontools
##cconf
checking
mounted
detach
ra0
1920x
thermal
hom
kv
##cash
##home
##asound
linspire
pae
##imately
spat
quir
depmod
eyec
indygunfreak
jun
rcconf
slocate
##han
##meeting
settle
grind
##00t
seq
ports
sdx
winrar
oddly
steve
pleas
icmp
##author
##jjjj
ubutnu
ardour
486
77
hung
##gar
##rest
partially
##mbit
extrac
##187
fvwm
gift
jail
lou
mldonkey
pear
##itar
##sheet
upgraded
blab
aps
handler
viewtopic
artist
reiser4
emulators
potentially
##browser
74
cz
kar
##hd
suid
downla
initiate
worked
limitation
gnucash
nslookup
circle
sarc
skel
keybindings
germ
hee
##nes
##vy
##att
##reh
##ette
##ingo
libgnome
postcount
picasa
##bbly
largest
sink
##isable
frig
cooler
##progs
##306
##airs
eek
sanity
8859
kay
thers
todo
door
rect
##ease
##olan
gno
directive
recordmydesktop
chrooted
matt
500gb
confirmation
cookies
obsoleted
bcmwl5
walkthrough
brilliant
775
ew
ies
rs
ted
##cad
whom
wiht
admins
32mb
xfont
btdownload
##hhh
faqs
dosnt
presario
punct
dabar
kdesu
bang
vector
##upt
proble
debfo
creat
javac
##command
configuring
sysrq
tape
polite
film
poorly
quake3
expression
diagnost
ripper
calculate
##gaming
xawtv
debfoster
78
reopen
##spell
##oof
##ivid
relay
##ikes
charset
rt61
voodoo
bizarre
unpartition
rapid
ventrilo
eric
gd
gay
mature
##bel
##ffle
naw
simulate
psk
ehci
reformatting
muine
hidden
pavilion
aircrack
whilst
wut
##job
ubuntugeek
stdio
shure
##unix
dident
unl
newline
badblocks
20050
parser
roms
qualify
crtl
nothin
masquerade
eyecandy
440
7500
lon
oke
tnt
yield
##source
##star
invent
##chunk
##imp
clutter
remot
genii
##paste
awsome
maintainers
impressive
favourite
succesfully
gigabyte
kitche
bab
dup
nis
##rink
##lph
doz
##verse
impl
seb
club
##shell
videolan
utilize
surv
ahhhh
160gb
sarcasm
8x
ck
gro
jedit
sac
##earth
file1
##urb
imm
somes
##apping
brute
ramdisk
areas
encoder
##128
rhyth
dvorak
fade
##ene
getubuntu
chrom
graf
logfile
defeat
##gets
sda6
subdir
himself
clearlooks
compatability
tasksel
streamtuner
matrox
motor
pixels
macosx
scenario
greek
tremulous
1ghz
4000
750
91
jee
notic
##meat
pros
fixed
usb2
monode
elinks
wobbly
subfolders
infin
ldconfig
##iiii
gmt
deamon
480
cure
k9c
pda
xhost
##a7
##ecode
##asy
##orent
abt
poly
preem
ava
execution
sooner
automounted
reformatted
girls
9250
reveal
k9copy
791
aug
bounce
maild
##doc
##irl
##mmm
org2
underne
##mp3
duel
hwo
albums
##iu
conduct
manner
##mbps
libt
toolkit
autoclean
##1300
magnet
shitty
heavily
##rences
turion
gvfs
punctuation
rain
zd
beast
##nth
whith
suport
wear
hier
screens
##spie
happily
accent
launchers
retain
rhel
##ney
legit
accelerator
##hood
chainloader
libflashplayer
a2en
emergency
timidity
cart
fuz
jow
lam
xbind
##zor
ink
comps
distrow
dammit
smarter
pixmaps
philosophy
93
jpkg
wd
##kes
animate
whatis
##ilo
##gra
##ship
deborphan
hoc
##atedly
bcm4318
lyx
##horse
monodevelop
dselect
kh
mim
ufw
wats
##gts
##vis
reinst
filetype
outta
linuxj
unsafe
comming
serpent
googleearth
dudes
possibilities
cyl
disappoint
4318
jp
pff
rum
scope
##oxy
bubble
hardcore
tear
##mins
easytag
subscribe
freshmeat
bluez
qt3
stdin
pdfs
norton
unpartitioned
##lap
##anbul
##unction
##uese
##ulations
unh
cdr
newe
defaults
flow
##bob
slick
archlinux
##usb0
mpg321
runnin
vpnc
rb
yess
##960
conex
scri
unist
102
##fsck
autor
bugfix
throught
dmz
supergrub
hotkeys
geomet
matrix
gamer
puzzle
situations
a2enmod
ore
inode
##etly
##thy
usability
compreh
heap
accell
keystro
braz
fram
acron
##iva
transgaming
freshly
deploy
improvements
thumbdrive
idleone
occasion
distrowatch
1x
450
73
gma
nada
##5200
##sta
sucess
##mem
comcast
##antic
addict
iphone
overload
lastest
1200
##ival
luckily
autoconf
sysadmin
repeatedly
magically
tempt
0ubuntu1
animations
crowd
meantime
ies4linux
nik
vote
were
woot
za
thom
##eline
paul
prem
breeze
initscript
administer
chatzilla
##php
herd
mkv
403
unfortunatly
asoundrc
borrow
e2
lba
rp
rail
tan
tid
##ko
##utor
##built
nopasswd
goof
abs
gues
pred
food
thought
woo
compiled
ndisgtk
200m
##120
sniff
sheet
##password
proposed
libpng
acl
bim
cad
lunch
sould
##leep
shiny
##ants
woah
##werty
operator
privoxy
##gggg
unders
platforms
deriv
##garden
thorough
portuguese
xbindkeys
8500
k6
nivid
oy
##stal
##owr
##otion
dive
hdmi
##disc
legally
selinux
workarounds
seagate
jowi
newegg
3c
69
omit
rant
sen
wether
doin
andy
prox
chunk
##ief
reps
##shrink
container
superkar
practically
upto
spreadsheet
##options
devilspie
jdub
symptoms
doenst
jumper
serpentine
bchunk
mater
tour
wer
x700
hamach
##verter
deg
##ridge
alc
sytem
unset
foss
fixvide
virtually
indust
garble
fingerprint
shuttleworth
fixvideores
i2
##ipe
##ember
cann
lik
##grp
apparent
nameof
dpms
##magic
electric
mechanism
circumst
##filter
superkaramba
3a
fes
wusb
##untu
##d1
informat
stil
##andon
arbit
winet
icec
##sence
journ
rwxr
##80211
intelligent
underneath
fixvideoresolution
384
ibex
##uate
##rary
##jan
##f1
##ources
bold
x11vnc
picky
sensor
vids
##exec
##hhhhhhhh
aaah
wastrel
7000
i915
sme
void
vanish
##uy
##data
##resc
##otic
hallo
shm
conect
scream
parti
sep
fixable
##xtor
pric
princ
200gb
communication
140
telinit
mtu
xvf
istanbul
cv
tild
##gable
##311
doog
##report
useable
cha
downloader
assure
pane
msdos
meter
boat
relax
enclo
xmms2
incident
hrs
havnt
##etex
chromium
hamachi
fixvideoresolutionhowto
79
gcon
wot
xkb
##udio
##eb
##wiz
##orama
tone
##ayon
file2
##abling
fixboot
##puter
purple
busid
hackers
kool
tinyurl
baker
elf
pwn
x1300
##04
##6000
##onfig
##seed
usenet
someones
someplace
##olate
prere
credit
smth
postscript
privil
##rypted
factory
bittorent
mythbuntu
##wxrwx
christmas
wnat
woudl
anacron
dozens
fesity
211
6000
cde
east
vc
ymm
##brid
myst
alre
postinst
drum
invite
##flux
hurry
partitons
##monkey
growisofs
##local
ppd
warranty
extracodecs
077
fubar
lug
##iry
##pre
iftab
##rif
chuck
##unity
helpme
says
appl
enl
checker
##shit
disturb
contrib
finn
spamass
knowledgeable
##resses
fwiw
8800gt
soemthing
redundant
culprit
geometry
ymmv
lr
m2
tad
uber
ws
zope
##hi
##stairs
toss
##achi
writing
slip
automaticaly
3200
differnt
cdroms
220
ddclient
donno
crawl
xeon
yoru
89
cash
rv
wes
##zi
iname
youd
loo
novice
##ider
##ective
unenc
fest
north
realvnc
utter
raid5
mdf
sysctl
excess
##wireless
cronjob
ics
wicked
##omething
casper
##flags
synchronize
bastard
3dd
cch
pine
ryth
##cked
##uit
##ni
##met
##elines
shorter
specially
##angle
international
generation
ethx
30gb
blahblah
stefg
vendors
powers
6600gt
answers
aight
cute
##pes
inbox
requ
extention
neo
ads
partner
spool
devfs
##mental
probl
dependant
##comm
commonly
tmpfs
##abytes
jeff
gnomes
1g
fart
giz
p5
sno
doing
##eshow
fort
##acc
chick
##ilty
arab
##ference
peace
wirelessly
minicom
mediawiki
nls
replug
exceed
##pris
rockbox
##repositories
##builder
##modems
61
cg
xand
##bye
##storm
##rence
mast
prepend
firefox3
amp
##disks
gtkrc
snort
teacher
dynamically
##grees
##drv
##guardian
conexant
tft
tetex
x3
yikes
##lp
getty
china
flaky
examine
speedtouch
safest
##echild
##rdao
##know
##185
xdg
idiots
automagic
fragmentation
employ
rosegarden
decompress
gnupg
aaa
fab
fmask
hc
jet
##cial
##rus
##ek
conection
consistent
##oper
backtrack
underlie
binutils
sda7
gtk1
##poison
lighttpd
details
difficulties
posible
suspicious
fyre
prism2
thousand
ttys0
shuffle
7300
father
han
lad
made
##dec
##bra
##face
indirect
##bust
##elm
sox
asleep
##ichrome
spike
rember
namely
coc
kindly
headaches
closely
hero
projector
pastbin
##myip
konq
survive
brazil
443
dill
mcp
nz
##rick
##racer
##bing
canad
summer
##urk
cast
cdrdao
grad
logs
edid
ques
##synaptic
##archy
wood
cpan
gps
acquire
lean
lockup
1500
colony
2200
primarily
smartm
lowercase
##aaaaaaaa
undelete
ubutu
students
x1600
mn
##zine
##ita
##ott
suprise
##kest
depen
##rivel
##ackages
unichrome
bootm
libjava
reality
expire
forwarding
pastie
snow
calculator
element
playlists
bullet
savage
thnks
xfonts
maildir
6gb
ffs
x300
xnest
yast
##rint
##lent
ups
atl
##docs
mood
disadv
remaster
realplay
1600
mysqladmin
##ocr
compliant
pubkey
occup
removing
hybrid
freakin
latin
gconft
xandros
smartmontools
gal
nee
##bas
##3r
town
moon
##iced
whoami
bottle
colon
sensit
purely
pendrivel
libglib2
reliably
spatial
7800
aqu
pse
##uri
##ycle
degrees
alco
##oker
unread
somethings
firstly
dmask
133
countries
##1400
geez
comparable
sharing
summary
screem
algor
germany
scribus
pendrivelinux
ae
efi
gg
jk
tack
wre
##c102
inn
bootstrap
##forum
portmap
##hosts
customer
equip
qt4
classroom
titlebar
individually
seahorse
recieved
hyperthread
balance
pricechild
gconftool
4g
cnt
giv
pig
renew
chart
gra
slax
boxen
burning
talkin
killer
pike
painless
alongside
ratpoison
##compone
cripple
uhhh
elements
ultr
sabayon
netsplit
xyz
unrecogn
circumstances
alcohol
5000
aes
dans
kal
tax
wt
##2x
##hare
##eras
gett
stink
consol
upnp
##char
##sharing
##beri
property
syslinux
screwy
camorama
frontends
pacakge
sethk
dooglus
224
helo
ick
nin
vn
wpc
##zo
shed
chgrp
##reader
arc
##tings
restrictions
##msg
legend
motherboards
destruct
cmos
posix
motion
malicious
j2sd
geeks
gunzip
assumption
quirk
999
##strike
dek
##cede
exac
##uler
comma
##izable
restr
reinstallation
portforward
xps
mainboard
recognition
routine
sdb2
arrows
fc3
percentage
dollars
fundament
somesuch
fuzzy
266
amb
ped
tank
inotify
##esktop
instl
shots
##ctions
##stein
atapi
ntfsprogs
roy
normaly
vnc4
pppd
##pgart
bcm4306
slideshow
ignorant
exclusively
winetools
algorith
lv
ldd
m6
nb
sence
wq
wap
##uel
##brew
myster
delet
goo
moo
readers
firegl
##fool
vms
quickcam
advisable
warm
##duo
trashcan
unfortunate
donw
quake4
yuo
children
srry
christian
warez
##beta
828
##ait
##ael
##mil
##pal
##wap
##atile
toward
soooo
magn
##ored
modifications
isps
overlay
nto
curs
mdk
222
##assin
excel
moron
##tray
##bby
kbd
xvnc
##center
combinations
ontop
hardwaresupportcompone
zxvf
bimberi
cchtml
dn
lun
nerd
sas
wal
##ique
##lers
##itz
##itter
chap
alph
abstr
goodness
105
##ubuntu1
livecds
##101
gcc4
indication
compiling
renderer
##suid
arrange
gamin
malware
diferent
jigdo
preempt
bay
ez
kppp
mwe
ogle
peek
sie
w32c
##partition
##ku
##will
theora
##amble
adblock
trac
versus
##appers
libv
kdebase
chooser
##padmin
##aled
artif
hdb2
##directory
classpath
descriptions
underscore
canadian
sensitivity
cus
lisp
mbox
rush
v3
rein
##lder
sugest
nosuid
going
diab
divide
netbios
sexy
wester
##upal
##works
modification
distin
configured
athlon64
prefrences
ticket
cookie
templates
libncurses5
deeper
kmail
mib
##cow
india
asap
somehting
unsu
##istics
beforehand
overlap
drapper
eval
catal
warbo
sunbird
limitations
centre
params
tips
according
corporate
motorola
finnish
libjavaplugin
aid
bam
hve
x1400
##aste
##cer
##pu
##ym
##2iso
##erve
##error
##stations
proccess
##dock
windowmaker
##imal
nvida
libata
##ogen
overlook
perfer
accessable
drupal
##logd
64bits
unreg
impat
fellow
ryan
945gm
##button
degree
icecast
gts
oic
qwerty
uml
##yp
##vn
fortun
##iguous
##def
gosh
loggin
ipaddress
flash9
easysource
##ibly
##106
similer
##news
neccess
misconfigured
seperately
800mhz
cmdline
danke
##00000000
##4lin
assuming
3945abg
kp
merc
pf
ine
instru
conse
confident
disp
disape
gnomemeeting
##umeric
##acent
passive
wired
webmail
textmode
dnsmasq
1400x
methinks
complaint
hahahah
tiger
squashfs
##cf
##iing
##sist
##bro
##yr
##orec
tower
shud
knetwork
##oders
compose
grade
spir
buff
offense
hover
hellow
overnight
choke
smoot
metal
acct
100gb
bttv
customise
img2
##958
typos
mmmm
bsod
astro
ej
ipp
jsp
march
mms
sic
zy
##pix
##wt
sud
stone
workstations
##che
##ffff
scand
##cks
remap
tyvm
offical
libasound
##boo
##quent
gamma
addingrepositories
amazon
frontp
hungry
duplex
disadvantage
hyperthreading
couse
dch
hol
##ua
##gers
##emat
young
reall
##ecd
disre
prelink
debain
xorgconfig
quic
procmail
understandable
hostnames
ids
replicate
autoconfig
##asswd
500mhz
metapackages
##weasel
silver
##kernel
##sensors
beeing
unencrypted
csh
kore
lady
mond
##codes
##oll
##gian
##mes
##vable
asc
##chm
filesharing
helpfull
guitar
twm
burners
##110
recomended
mii
wars
172
240
compilers
donate
productive
##resize
crypto
safety
electron
briefly
derivative
dillo
2g
3com
mne
spl
##ury
##jdk
proces
usin
confer
##olinux
##asters
diskspace
mailserver
statically
##priv
007
60gb
bind9
500mb
ntpd
##debian
flawless
impact
links2
informative
7200
8000
dsa
gri
gap
mud
oi
svideo
##hal
##´t
##eron
anoy
myfile
##depth
unison
disaster
addy
libd
freeware
decoration
##168
toma
traditional
bootmisc
josh
p7
sory
x600
##aed
##nig
##otes
##nture
##ures
feb
apr
aprop
movement
macro
volt
odds
chatroom
concur
kopt
failures
simplify
sockets
upgrades
eleg
##pathy
snapshots
unclear
declare
occupy
710
b0r
mke
wol
##gie
##enet
myspace
sta
##that
atom
adam
linuxm
downloading
moniter
##program
relig
##paudio
topics
snes
newsgroup
factoids
turbo
nforce2
congrat
thumbnail
subdirectory
flexible
dimension
women
mkinitrd
8mb
gforce
pile
tit
w00t
##lines
##fusion
ham
shoul
filemanager
maby
##outing
linuxant
pages
hire
brit
##clusion
assert
regret
closed
lockups
customers
customization
##flow
jumpers
##label
doesent
##upgrades
ast
mks
pvt
wok
##obo
##bg
##bre
##lts
stag
asf
##urs
sett
spring
agpgart
contract
permisions
mplayerhq
discourage
dhcpcd
operating
splashscreen
snmp
unresol
authorize
guidance
associations
##dtea
1920x1200
western
impatient
bag
hon
pst
uri
werent
##uce
##life
thks
##stall
tomm
haupp
dip
scun
parted
chanel
##idea
feet
multip
mission
ethtool
evdev
transmit
geforce4
designer
icedtea
vboxdrv
##mirror
foreign
significantly
laserjet
##bbbbbbbb
c0
cms
pvr
vps
##del
##js
##jf
token
##ico
##icked
alber
##anda
ark
##astructure
sit0
mirrormax
maxed
##aven
rt73
ext2fs
marvell
##dedicated
xvidcap
buddies
dcop
jerk
contrast
severe
5500
##oz
##abled
sudoer
science
##izi
##applet
homework
##derr
##105
lesson
##1211
tehre
embar
fallback
hfsplus
explode
##stuff
budgetdedicated
enlarge
arabic
dekstop
333
dry
dick
gem
n2
og
tile
##noth
##mounter
##friend
##witch
whos
##roast
##ingu
sole
chapt
nov
##los
##ontrib
termino
restate
##appear
scriptname
ntfsfix
##itten
##320
hda7
modelines
1400
##anoia
rendering
mpeg4
conversations
harsh
tuxracer
paritions
crystal
bbc
ieee80211
spamassassin
frontpage
4ghz
bass
d6
jul
mh
nes
sbl
ufs
##cn
##custom
##iam
##ikey
##sup
##ement
##zzy
##omatic
##otu
##endo
notifications
##amil
syst
gram
netw
sem
opendns
maya
remark
lib32
brave
aparently
untr
erros
115
ps1
tribe
fourth
fc4
chkconfig
nomachine
acknow
assembly
smoother
addingrepositorieshowto
disregard
mnept
2600
lpadmin
ski
w8
##pective
##leges
##rek
##erea
mega
orphan
chatter
align
recie
usernames
screencast
swapp
##formed
10000
evms
compatable
importantly
happyfool
segment
tarballs
respectively
mozplug
friday
quota
freecontrib
freespace
vnc4server
7zip
ger
iec
nich
nrx
qp
wxp
##lan
##nk
anyting
prod
##pppp
chess
##lol
abandon
grace
##itions
remake
soundcon
offensive
libav
##nament
perspective
bitl
statements
authority
complaints
identd
189
sheesh
expertise
programming
75hz
fx5200
propably
tought
igp
miles
vulnerable
terminology
688
emm
f9
fq
ks
wu
##cing
##part
##fro
##vb
##bucket
partly
apper
preseed
deserve
cardbus
fewer
puter
keyserver
crc
lets
avg
availible
respawn
parit
1152
miro
##books
actively
smartctl
pleasure
lossless
authorized
greeter
nrg
autorun
unreadable
950
cit
dust
misty
times
##dible
inex
stderr
##amd
reposit
ipsec
applicable
2009
digit
0x0
libx11
starcraft
frequencies
9700
8800gts
unclean
libqt3c102
arbitrary
##synaptics
7gb
crop
ea
e16
giant
s2
##cop
##mart
##yar
##kl
##wide
##ounder
##rem
nodev
maxtor
comman
grate
opening
ohmy
coinc
gph
worm
misspell
natty
transport
120gb
sqlite
autopackage
naturally
paragraph
fyrestr
scunizi
sblive
0b
855
nad
##range
##game
##tree
beware
##struct
req
##icename
supose
debu
scare
una
sp2
energy
programme
##aked
##intosh
##fts
boom
arena
mailbox
cataly
##133
3gp
##174
##packages
truetype
glitches
wikis
bugfixes
pink
##oft
##jam
##your
##976
##kde
suc
shake
##ample
compact
windowmanager
##acts
diskmounter
pclinux
resist
norwe
secondly
125
metad
razor
evry
cdrom1
bitrate
iptable
dialogs
jackd
ratio
attachment
##addr
9550
bullshit
unexpectedly
netscape
michael
gizmo
mkswap
7z
bir
cour
dre
dee
sse
xcd
##mnt
##inde
##ptic
##ural
##ists
downloadable
ar500
seemingly
liblame
ipmasq
bugreport
##clam
joom
2001
138
sneak
##usso
##trace
gamers
simplicity
texas
guidelines
##uuuu
liferea
aplications
mozplugger
cro
kwin
lend
nan
warth
##uiz
##rator
##mos
##511
##wolf
infer
compt
conclusion
someday
##uxe
cake
cafe
plone
netcat
pose
agian
nvidias
kde3
internally
laws
vmplayer
autologin
speedstep
xchat2
rhyt
1300
weekly
geforce2
depart
makes
globally
autodetected
silence
estimate
foreground
takers
bksp
linuxjones
wesnoth
acknowledge
catalyst
216
766
8400
##etical
##otine
sund
soz
##atever
##acket
allot
##idate
nest
##diff
slice
emule
dvdshrink
regress
scanners
verification
alike
notebooks
kbro
approve
malone
zenity
aplication
friggin
##rescue
festival
elegant
joomla
5th
965
cree
civ
ell
ebox
les
##iber
##gon
##fam
##walk
inject
andrew
social
somefile
scite
guild
gnea
##update
openjdk
##loading
recycle
modular
107
repositor
perf
toolbars
generator
disabled
aclocal
2002
populate
independ
automatix2
temps
polit
totaly
matthe
frustration
immediate
photobucket
infrastructure
fryguy
daniel
polypaudio
unistall
wreck
2c
550
dance
eagle
kios
m1
rere
tea
##rot
##mob
##atically
##inn
toast
doctor
##release
stories
outbound
pager
intalled
everthing
arse
##wwww
pc2
multic
fontconfig
200mb
communications
irda
##sdt
familar
humans
hyp
bandwith
gdesklet
equally
ltd
sliders
keybinding
african
downlaod
infinite
suprised
spirit
590
aar
bound
dsc
kat
obex
q3
qmail
rd
rand
tul
##uke
##ipt
##tor
##f4
##atll
ith
whack
hab
deinstall
shade
##ssh
caution
outline
appname
commands
west
##actl
freely
peripher
dvdrw
ntfsresize
lauch
virgin
theirs
intelikey
mailx
2500
encrypted
cameras
pii
resolvconf
stylus
mpeg2
deskjet
manufacture
85hz
unneeded
breath
anythign
daniels
##number
millions
core2duo
hardwaresupportcomponents
diablo
p7zip
mke2fs
norwegian
billy
dere
mouth
nay
rpc
sq
##hunt
inapp
doo
##ething
ons
stead
##arter
alas
hebrew
aptget
netfilter
sweat
kevin
blast
##athan
slown
##ception
codepage
rc3
coreutils
psu
widely
architectures
happends
##ipped
exim4
nexuiz
overclocking
bless
dint
f11
gdk
yr
##4k
toler
##lead
whirl
##etime
##enstein
offset
autogen
synp
keycode
robust
##proof
btng
psmouse
pidof
dialout
indent
uhci
registration
doubtful
##queue
hyd
egrep
runnign
frequent
powerm
adminst
xmame
sarcast
capslock
hilight
blabla
##lphin
jeez
principle
##prisingly
catalog
a1
cub
nn
##aus
##iat
##gue
##gdm
##07
inh
##ters
##ilus
##urus
okies
htaccess
##ags
flgr
libca
##ians
##bootable
##slash
003
doubleclick
opps
optimal
ultimately
0ubuntu2
tonyyar
kvirc
comprehensive
monday
soundconverter
264
bingo
fuss
lurk
oji
pity
ray
rgb
tec
wis
x19
##a2
##iel
##bad
##08
##x768
##fast
##850
##v1
##vous
##utable
##allow
##ala
stumble
##rial
##ives
nethack
semic
keyb
ampl
pertain
intergr
##ahaha
wifi0
parad
cat5
trackerd
activex
scramble
schem
improper
becas
##charset
quickest
bitlbee
debugg
fp
ib
park
rly
t60
##dav
##too
##mens
##atime
##otix
ubuntuusers
deselect
##inent
bootdisk
gnumeric
networks
libmp3
phoen
buildpackage
##325
swapoff
##module
16x
strate
freind
##ivly
##bits
eachother
persons
blocks
contents
173
2400
valuable
splashy
specialize
nicotine
nights
gconfd
viri
policies
mmc
spellcheck
mathemat
variants
ulimit
artsd
isolate
whatismyip
material
wusb54g
enclosure
congratulations
fqdn
fyrestrtr
metadata
xcdroast
slowness
ave
cact
eep
hug
lftp
yrs
##nm
##ext
##3g
##wan
thu
stub
deaf
nosplash
spca
spoof
sept
keylog
keygen
overview
ndiswr
slowdown
dave
deluxe
##software
assignment
frozen
additionally
cs2
migration
pgrep
gnomerc
sarcastic
flgrx
112
gad
m5
mout
ration
ssd
##d7
##panel
##rok
stutter
godd
##odate
grap
mountable
harddisks
##izon
##diy
wooh
foldername
cpio
hostap
dualhead
ides
volatile
erro
gcc3
ears
##134
pppconfig
kickstart
automounts
cryptic
##xxxxxxxx
education
rhytmbox
libcairo
bias
dsdt
jay
kam
lubuntu
nfts
pie
##sf
##pond
##har
##ham
##field
##gel
shin
ned
adve
grac
spd
flake
pr0n
guyz
editing
dependec
##ibit
remedy
ut2k
##coming
2048
wana
ie6
definitive
##blue
ooops
batteries
discussions
democr
##theless
unfamil
diagram
kanotix
guarddog
vast
xauth
yall
zim
##nar
##nces
reen
sos
bootc
hijack
accross
underst
cru
crank
distract
glance
##cprobe
prett
via82
##bass
obl
113
1100
moments
ddcprobe
##437
chrooting
continu
libcurl
ioctl
blindly
exclusive
matthew
1mb
132
771
fond
hitch
hsync
nap
pango
rn
udma
xming
##bell
##lu
##got
inbound
dolphin
##ryph
asm
knowled
compete
appar
linear
websearch
savedefault
gentle
worthless
##gold
rocket
descriptive
definitions
kmix
safem
dollar
hierarchy
strategy
6100
amm
grie
nail
t61
wint
##bility
beos
##real
rea
##isa
noexec
##agent
thansk
maga
appropri
system32
remix
##others
afterward
##ipate
##instream
firefox2
accessibility
multit
firewalled
##duction
mirrors
nightly
curiousity
##azz
danger
iocharset
skins
gwos
sr0
pipeline
bonobo
##machine
pakage
1gig
poker
sbackup
##lc
##tux
##fan
##wy
beac
tos
whe
##ads
##iler
thinkwiki
trun
##into
bracket
crit
gprs
2200b
##rootkit
annoyance
bzflag
mmx
expressions
thnk
suffix
synaptec
blurry
analyzer
tedious
diagnostic
proxies
tournament
pseudo
qparted
tonyyarusso
becasue
safemode
7900
bone
cflags
lampp
mou
ride
xwin
##hen
##wars
haw
##ldap
##ading
shor
sof
alr
direc
##ilone
unbootable
playable
modconf
programname
hoop
##ternal
swt
swith
##speed
##aka
##ubuntu2
webdav
freez
kindof
smack
##berish
129
fran
dmg
leet
numeric
##filename
retail
transc
##ocate
ff1
804
attract
denied
##bmc
managment
flavour
##runner
dissapeared
dinner
amenado
zd1211
excessive
cursors
mneptok
danish
eme
pant
##dri
##rain
##bang
##neck
##hp
##hes
##fin
##lec
##oma
hai
instll
##rock
chr
albe
##ndis
mainstream
##door
scient
backlight
synap
quod
issues
avis
apok
empathy
##minfo
##emacs
ctr
subse
subsection
promote
receiver
forcefsck
bitmap
redist
trident
trackpad
##183
thinkpads
54g
megabytes
regexp
##join
beautifully
autocomple
bulk
intranet
relationship
m3u
priveleges
unrecognized
assertion
n2diy
pclinuxos
inappropriate
phoenix
unfamiliar
ei
hrr
jmic
lup
oot
ron
ud
xul
##bi
##hard
##f8
##wen
##were
##ethe
witht
gov
exha
backslash
goodies
arren
fem
libes
actuall
evening
##avis
elses
interval
preferred
nono
clearer
noobie
##ietary
telnetd
omfg
respective
sshing
wrt54g
trojan
inconsistent
rxvt
acidrip
yessir
alphab
grief
212
9500
d2
dub
kaz
ven
vsync
vital
xbmc
yelp
##lat
##jour
##mc
##x86
##7b
inher
doze
gethost
stri
nodma
##oda
heats
score
downloaded
menubar
webbrowser
phpbb
wass
2010
fglrxconfig
urban
##tomilone
noobish
args
humor
additions
epis
clonezilla
chkrootkit
flickr
segfaulting
zeal
campus
lxde
government
everythign
##juicer
albertomilone
libmp3lame
720
billion
pitch
righ
t42
##d5
##ipper
##lity
##943
##945
##264
thee
##ston
##ntfs
##otate
##arn
profit
##aged
##aser
##penguin
ints
seat
vmnet
##days
ubntu
##fiable
transform
carefull
facts
extensive
touchscreen
vesafb
##iledges
pkg1
xvzf
##marked
redirection
##links
tnt2
1400x1050
scandisk
synpatic
rationale
jmicron
4200
6th
dbo
nit
oe
riva
zer
##d2
##iation
##break
##yte
##orge
whould
logr
cave
changing
poo
nevertheless
##erently
elite
genu
202
statistics
15gb
priviledges
##startup
horse
konw
iceman
libgl1
vboxusers
convo
1ubuntu1
educate
##wanted
stormx2
siemens
fortunately
spdif
mum
wond
yar
##pers
##ommy
##opard
alo
mame
##ursor
##ulus
scor
##about
moin
hdtv
removed
##dios
vmx
macintosh
dhcpoff
alsactl
vimrc
libgpod
quake2
tinypic
hl2
hahahaha
libsdl1
##mysqlphp
wolfenstein
##problems
stanza
tilda
equipment
knetworkmanager
iec958
2200bg
5mb
aix
l33
mam
ooooo
opport
ogra
xz
##cate
##ran
##b2
##lty
##350
anten
##megs
meminfo
height
righto
buzz
userdir
connected
10mb
freedos
mondo
ntsc
vars
localdomain
##ucky
##poll
equive
blob
resemble
##notify
##nutu
lossy
400mhz
periodically
bogus
dkpg
association
africa
noticable
smell
dansguardian
grateful
woohoo
bootcamp
4mb
jin
lee
nou
woul
##curses
##uct
##gress
##f0
##wine
inactive
##leg
##req
##alt
##kel
stfu
proftp
##sson
youruser
alltray
cab
grump
##olor
extended
keen
ahem
mediaplayer
##wrt
experiance
##dder
xfwm
pressure
##pozer
verizon
variety
##130
lvm2
voila
pending
subjective
amongst
vaguely
silicon
nessus
scaling
x3100
w32codec
kbrooks
heatsink
hig
lapp
mul
punch
xemacs
##4000
thes
fist
##mel
anyon
meen
los
##child
##amond
maver
unwanted
##ought
##olt
##team
whereever
stuf
coop
##www
overly
pluggin
wrongly
smash
122
joh
mousepad
165
208
smallest
mental
famous
surprisingly
presently
margin
havin
blood
octave
desklet
authorization
##eshift
socks
berl
##ssssssss
kompozer
pronounce
accelleration
mystery
3ddesktop
chicken
department
reread
8ghz
a4
tam
wb
##bbe
##5b5
##orld
tovid
reburn
##ench
##enotes
instability
##addy
shot
asl
##abbit
intl
##usp
sale
apachemysqlphp
gamepad
faith
##phen
##456
cya
destop
apples
optimizations
300gb
##security
malformed
interaction
gwget
reccomended
paddy
awkward
piracy
beauty
jerky
pacakges
cyberc
rtl8187
natural
d4x
oyu
cdemu
logrotate
dt
fud
iriver
naked
ov
tn
ure
##aing
##b1
##bridge
##norm
##mn
thign
##uter
reso
hae
##dell
abilities
##arena
preload
sourc
108
phew
waz
sms
##beros
##ddy
##ansion
leopard
botch
evidence
visio
urge
minimise
mislead
exept
exports
scrap
incredible
terror
incorp
pygtk
optimise
luks
sequenc
ich5
repartitioning
satisfiable
##oooooooooooooooo
neighbour
assemble
travelmate
##stood
nagios
neccessary
albeit
bow
dit
f10
gat
ian
nw
rick
sight
uvc
##ause
##cre
##198
##km
##aration
##ened
##ppers
sooooo
chanserv
lookups
newuser
##ospace
soundjuicer
amiga
leap
numpad
2011
eror
floppy0
vimt
fscking
32bits
morph
insall
vsftp
##235
desklets
propietary
dlls
johnny
woman
nividia
0777
mastersh
artifacts
apropos
##inguish
democracy
genuine
cel
ihave
kth
m7
wy
yp
##cfg
##sion
##nin
##jc
anime
##ione
notor
##ecl
##rill
nopaste
##stently
linux32
changes
appric
##bear
##class
intermit
mplayerplug
boys
##122
monthly
##dfl
neces
##1394
50mb
initialization
antial
##237
makers
scheduler
packe
##based
6667
utterly
astro76
birth
770
bw
cach
gsp
ouput
##iated
##sound
##talk
##jk
##650
##hg
anon
recheck
chop
ala
##rrr
##pest
hardcode
arnt
cruc
pert
compizfusion
waiting
freetype
untouch
autoh
printf
indian
rmvb
customizable
stupidity
##256
kbps
messe
##192
defragging
mountpoints
inspect
drawback
foundation
brainstorm
9755
tcl8
bmpx
consumption
convention
##jjjjjjjj
magnetron
keystrokes
i2c
mercury
appropriately
arrenlex
grumpy
maverick
164
bird
gi
hcl
ran
wash
##a4
##uld
##bers
##mall
##paint
##6600
##keeper
##inue
haveto
##iong
noisy
goals
##ido
##urday
mangle
imwheel
netowr
checksums
trap
trunk
1080
##fsg
role
##rxvt
##240
scanbus
vision
ttyusb0
ubunu
gods
##string
ooo2
xsessions
pixmap
starnest
conkyrc
ich4
nervous
benchmarks
leds
sacrif
subdirs
pfft
holid
conference
magazine
3ghz
5g
bible
jh
tl
##away
##rn
##mend
infl
##eness
##alo
fif
installin
softp
chn
##unky
abou
meanwhile
kerberos
connecting
feas
amuse
pcsp
##ired
restarting
preferable
##standard
##settings
reconstruct
submenu
printfps
definetly
##formatted
trill
##aud
microcode
furth
dos2
##widgets
surface
##locked
dualbooting
holycow
seamless
equalizer
nothign
snoop
cacti
female
inherit
cia
duck
kont
pong
tj
vox
##eh
##p1
##yl
##ync
##utu
##esp
shove
shold
##oky
##abel
##imited
##ira
spose
##izes
libj
##aken
dvdrom
cope
owners
##ports
##esting
subset
sucky
137
insatll
emacs21
debugger
squee
##session
realplayer10
##byname
darwin
##d05b5
pixma
preface
nerolinux
irqpoll
cellphone
##processor
spoil
gnoppix
cylinder
sicne
virii
ut2k4
186
230
kiss
wack
##a0
##d4
##rad
##born
##412
##iner
##inked
##lem
##itary
melt
stamp
prov
concent
comple
grat
preffer
106
mighty
coaster
monospace
6400
win7
endless
mustard
configurator
december
drv
detected
parport
uhmm
viable
magical
halp
securely
floodbot
oooo
aliasing
ipw2100
educational
##eeeeeeeeeeeeeeee
chapter
wxpython
##family
##ryphos
knowledgable
apparantly
berlios
vimtutor
starnestommy
dos2unix
210
dw
fot
htp
jr
ogm
rj
race
vg
wod
xdefault
##rat
##pci
##orow
symp
netbsd
mounts
playing
foomatic
modinfo
hood
libwx
brick
acut
privacy
newbs
verse
horror
##dbc
hyphen
csv
turk
tsclient
hunter
wxwidgets
tzdata
consumer
restriced
##hunter
goddam
gracias
exhaust
gethostbyname
dhcpoffers
incorporate
crucial
6150
fru
gest
hde
kw
mun
pv
v4
##a5
##mor
##make
##fic
##lla
##lee
habl
notes
##ripper
sho
conserv
diamond
##ando
##arence
##irrel
##umber
ide1
happier
phpinfo
##display
##oob
iso88
##itto
alternat
prime
existence
##804
##logs
116
cele
miser
planeshift
agreed
chek
dragon
##stats
codename
4311
luke
wildcard
wildcards
cnf
derive
spew
renice
usser
sunday
tulip
apokryphos
bio
c2d
dra
gms
mtp
tal
##cal
##cache
##b4
##bber
##lim
##nis
##games
##tec
##5xx
##420
##kay
##qq
thog
##erical
halo
checked
conen
##ids
thankx
ima
system76
pov
director
##forme
usbdrive
googling
shares
javade
memor
##computer
documentroot
##ysis
definatly
1337
##design
##btu
chew
##908
multiboot
aspell
43xx
sweden
##rrrrrrrr
appeal
smiley
bottleneck
mastershrek
xdefaults
2mb
fow
flock
hv
mhm
nss
vu
vict
##mess
##360
##318
##kt
bean
##ining
##ani
oft
installl
justify
cong
liner
divert
someway
confi
spect
##using
##aptop
playstation
hoe
libn
autos
ohci
saa7
prone
proud
apci
builder
##anges
##ivo
virtualisation
20060
repositorys
gona
dells
135
sni
2100
ooooh
explanatory
insanely
ia64
##layout
announcement
predict
fortune
algorithm
unsuccess
lupine
286
3x
810
a8
hen
jed
james
kx
ming
msh
rk
ric
ust
##nie
##mx
##fly
insu
inaccess
whis
##ioned
##ad2
libus
loaded
dex
ca0
eny
weir
mounter
feh
probab
##aku
##rc1
wah
monitors
groupname
smbd
004
activation
infos
##54gs
visuals
##notes
pinning
gtalk
protected
harmless
silently
savvy
kynaptic
duron
##discover
j2sdk1
korean
anoying
##customization
kiosk
cyberciti
sequencer
untouched
213
311
bbl
dled
fon
hic
kil
ses
tue
wing
zend
##codec
##b0
##f5
##ford
##function
##state
inodes
doors
whant
##roe
##ptions
plow
hardisk
nvidea
##xtract
##ubuntu3
##rently
freevo
searchon
##quate
##temp
existing
166
##ertain
differnet
printscreen
##pair
ddrescue
##nex
sidebar
banner
designate
titlebars
##ercise
translations
optimization
gtx
gibberish
ich7
convenience
##ijs
8139too
iwl3945
libasound2
powermac
opportunity
sacrifice
holiday
iso8859
nam
piv
##cor
##d8
##sing
##smb
##times
##ymbox
##f6
thi
doest
##sey
reform
anyother
##dently
installtion
shack
cher
asx
dire
needle
##ura
thinkin
updated
##ipci
##serial
oldconfig
sharename
##quid
xpm
sdd
sdxx
##whatever
funn
biggie
powerpoint
specifications
subfolder
discont
floor
speaking
coudl
sawfish
bookmarked
horay
##snort
adopt
##liable
decently
dbg
gaming
partioning
americas
sigmat
extentions
f5d
kubu
217
das
eight
lart
mee
nite
rr
t1
##cup
##sg
##nod
##440
beable
##etect
##arious
##ising
installe
consi
##chart
##ards
##amps
helpers
abnorm
parts
eta
deviant
backtrace
ipcop
debians
##ires
textfile
frick
powerfull
##oded
mailing
restrictive
hourly
forced
psi
noticeable
verison
hotspot
agreement
rtc
##169
tuxfamily
lucent
circuit
##brain
cnn
gunna
bulmer
8600gt
wmp54g
##oftware
ca0106
sigmatel
5x
ci
cig
fhs
gag
rl
sde
##c1
##gk
##ytes
eol
##ann
hall
##alib
ubuntu7
mydomain
lok
##cted
##erson
##ulf
units
partitionmagic
downside
##ternet
libmysql
libnotify
overflow
resident
em64
joc
troublesome
167
196
119
features
177
192mb
##2003
unreliable
mmh
hwinfo
pureftpd
ivtv
1ubuntu2
ajax
framerate
voltage
recieving
gphoto
pcspkr
420
dst
ditto
eyou
gsynaptics
i´
ply
pour
v6
wink
wud
##car
##cript
##tan
##9e
##hl
##hrs
inbuilt
domin
##omp
whay
reass
loki
dele
chase
noo
##chrome
usd
unformatted
changer
##agon
##iles
card0
probable
menues
tester
selected
cloak
ctcp
cpu0
##nsmall
expansion
damnsmall
##tedly
##ators
bush
##eroller
50gb
violate
proprietry
##9999
brandon
ldp
compositemanager
burg
guides
philips
1ubuntu3
ds1
reaction
intention
intentionally
ddr2
arise
swappiness
independant
flakey
aer
jut
kbuntu
lond
piz
##ubu
##b3
##gml
##hy
##fp
##zar
being
##reg
##alf
insted
mel
heaven
scre
linuxes
ens
thingies
libpc
thrash
ntfs3g
##cially
entertain
tabbed
dram
drastic
mbps
advocate
popups
supertux
afaict
roman
navigation
airsnort
0ubuntu10
appearence
wonky
b0rked
x1950
hrrm
gspca
awe
gaw
ime
jm
lk
muse
pbuilder
rac
rise
rute
vhost
##die
##bh
##power
eog
thet
##len
##send
reuse
##igo
##chance
mah
sco
##ontrol
recv
quant
ahah
throu
lolz
ansi
##configuration
1234
swapfile
enought
ubnutu
illust
startupmanager
smb4k
ie7
wms
wmaster
redraw
extracting
misbe
##devices
symlinked
pictures
fileroller
bzr
##907
##iterate
discovery
counterstrike
prism54
##iquette
footprint
##sensitive
thoroughly
industrial
abstraction
##amd64
turkish
1tb
330
bou
hend
jose
mash
mga
nint
oz
tftpd
##ely
##1g
##fall
thick
##orpg
invert
##eem
progr
workable
nooo
##ched
##ams
exem
needs
maple
thankfully
##urd
preform
103
1050
removeable
liveusb
phtml
keith
keytouch
corect
laptopt
##types
apach
##who
cpanel
mpc
winmodems
idee
sda8
uninstaller
1999
autoload
weirdness
observe
##ikam
exceptions
lightning
lightscribe
audit
patrick
kicker
captain
1280x960
xxxxx
july
##monitor
worksforme
##wxrwxrwx
9600xt
introduction
##newversion
swfdec
delivery
hsf
facility
helloworld
##ndiswrapper
conservative
discontinue
consistently
4965
510
bart
dfsg
jess
lav
racer
tou
tin
##sr
##4x
##zed
##omat
##rey
reis
sha
winders
unhelp
##osa
downstairs
##bey
isdn
probelm
##archive
loco
distinguish
toolchain
internets
##iosn
poweroff
decoders
autocad
purp
altho
afaics
snag
##blade
hdb3
##hehe
newsreader
1280x768
##zzz
makefiles
facebook
lenny
hardest
clarification
seamonkey
shuld
##1505
ironic
amazingly
august
sucessfully
##pixel
wisdom
spca5xx
keylogger
3500
aq
ik
kin
pound
psa
tas
urxvt
vac
xbuntu
xtk
##aar
##c5
##udes
##mage
##pet
##5000
##878
##vv
relog
##iges
connet
upcoming
likewise
##ued
windowed
htdocs
linuxhelp
sayin
grup
##ermore
veg
logoff
betas
defaultdepth
diffrence
coast
handbook
205
restriction
daugh
145
##aneous
internals
syslogd
hybern
cs3
reachable
libglade
##authent
##exist
sioc
runnig
analysis
richard
##seek
contrary
rhythm
rumor
instlal
civil
libusb
1b
2800
baff
lit
mw
mgr
rusty
tall
tube
xwindow
zap
zfs
##c6
##clocked
##bnc
##nz
##fact
##attr
##itool
##uto
relogin
##roid
myuser
linx
scguy
makeactive
backt
recong
##edia
opteron
libre
synce
##avia
lethal
grepping
portal
minix
##berry
lastlog
guten
##640
slowest
hda8
190
retype
sketch
shorten
firewalling
##hostname
awfully
cept
profiles
incremental
squirrel
##oudn
validate
mmorpg
trend
maximise
300mb
##missions
##burner
odt
beggin
rigth
libxine1
forbidden
meaningful
diagnostics
lrwxrwxrwx
hauppauge
1m
370
445
cous
jok
leech
mant
mong
nouse
sage
tia
ward
wander
##a3
##bop
##lands
##v4
##leon
##arse
##accel
##verify
##rysk
stun
iffy
##blems
makedev
unconfigured
##images
##irq
##agic
clik
defoptions
109
keypad
bra
crud
##pends
pra
creating
distance
editting
##quis
multise
privel
drug
##obab
sucks
torrentflux
geany
paypal
oggs
frog
seven
popularity
xenguy
gmake
making
0ubuntu3
istall
persistant
shudder
trailers
spooky
wg111
##frame
health
isolinux
btdownloadcurses
unlimited
libdbus
warthog
prettier
l33t
feasible
jockey
530
6ghz
cb
c3
e1000
gor
ix
kun
kak
oop
pk
##upport
##mt
##hough
##423
##stype
##arly
haev
sts
##elf
shou
chage
##elly
htat
unblock
unbut
##aba
##ichowto
##show
##ules
greg
searchterm
distupgrade
emph
intermedi
automatrix
hdax
1001
promt
##ockey
06lts
advices
apache2ctl
wmaker
wmvs
139
deliber
trim
tty2
tty7
digikam
185
filesize
descriptor
##dpi
psybnc
hmmmmm
foolish
sonic
fellas
baobab
dowload
incline
telephone
cannon
alredy
evaluate
coincidence
via82xx
cooperate
furthermore
mshome
em64t
655
a64
c1
e1505
fspot
gq
rls
##uing
##rade
##mers
##xl
##kind
thaks
##stone
##anol
anny
insensitive
##vet
##itly
##utton
andre
rent
como
upstairs
exotic
alll
adresses
ununtu
systemwide
disallow
askin
phy
brothers
prince
pcf
modulename
##claim
permision
winmac
##webs
203
skim
codewea
117
iwth
stupidly
plane
continuous
nearby
xdpy
##hold
##888
types
multiplayer
##http
wallpap
##351
rotation
ache
sansa
##wood
street
desperately
ohhhh
tkip
anythin
dissapear
synaptichowto
analyze
trademark
grafic
tackle
wpc54g
consequ
adminstration
codeweavers
1k
3800
610
aum
cens
eire
eula
gals
hg
jah
koffice
voc
xstartup
zune
##c4
##jockey
##wel
##lef
##owing
##etr
ress
gets
mebbe
##pts
##rik
alread
outage
abbre
##ffered
unsec
##ased
##cces
defrysk
##conds
loadkeys
##fty
glcore
##raf
altough
frm
gpro
specification
print0
externally
viewable
cleanup
similarly
##509
##prot
initialise
##uding
multiuser
sistem
uptodate
audigy2
incompatibility
explore2fs
inconven
rearrange
keystroke
electronics
unresolved
regression
peripherals
amplifier
reenable
insufficient
inaccessible
xdpyinfo
4306
ere
ffox
gord
hld
hond
kile
nwn
upp
vh
yip
##lss
##embox
##xk
##wos
##v6
##var
##inf
whist
soph
yourfile
newn
linuxforums
grasp
presence
precede
##ilent
##izz
moder
arv
actions
crunch
crdl
pc1
oldest
throughout
040
sdram
easycam
124
robert
strang
rausb0
nonstandard
dirname
boinc
untick
207
evidently
118
rediculous
##sda
worthwhile
adaptec
ubun
arround
hdb5
presentations
jre1
brian
uncommon
epic
motif
0x00
subnets
##ledges
915gm
##burning
##tracker
ardcho
libmad
industry
deletion
##milar
stubborn
netowrk
trillian
ciao
baffle
555
bd
ced
dsh
dread
ddos
ello
hup
pec
rack
##c3
##bod
##pat
##hibit
##vals
##online
##utal
##isch
##adict
mex
degrade
ifs
##inders
shh
noscript
noatime
##there
drift
##idi
##iddle
enabling
serverguide
##osl
##ository
byt
##othe
goodbye
connectors
##apps
##installer
ip6
##ourne
dvdauthor
126
gpdf
distrojockey
subscript
195
autofs
daap
rms
tvout
mknod
##45g
##bler
##167
espanol
##abyte
uppercase
tightvncserver
categories
gigabytes
wg511
longh
##document
derek
squeeze
mustard5
misbehave
xtknight
unsecured
crdlb
1800
940
bbs
dbl
gij
tort
t43
wet
##9x
##vas
eof
##ati
##inch
##render
haven
instale
fiber
ubuntu64
##meber
installs
shield
##thand
##okie
cdt
enig
poof
updating
##perience
firefoxnewversion
overcome
avast
apost
pastebinned
##quake
topy
texture
refit
barf
245
lowlat
##969
pkgname
initializing
technique
901
satan
fusesmb
timeouts
allocation
reccommend
occasional
libpam
fridge
contradict
v4l2
politics
intergrated
wodim
forcedeth
london
910
cer
d7
dal
gaz
hou
klogd
rag
rpg
siv
tango
xres
##uary
##ernet
##uts
##acing
howcome
##ssion
exercise
driv
##eap
##ided
##001
##ago
prepar
preprocessor
sean
##istered
brad
brush
usbcore
##ricted
winbind
usershare
existant
panels
##iving
rela
20th
visually
necces
##990
##ooooo
absolut
eyequeue
##launch
reminder
nxserver
nforce4
japan
rt2570
##gamma
apear
##yyyyyyyy
libxml2
ericsson
cylinders
goofy
journalling
shmconfig
chaos
powersave
birthday
deviantart
laptoptesting
unhelpful
psaux
ardchoille
topyli
660
bp
iow
l2
nubuntu
ote
pn
pump
punk
rgr
s99
xconf
yank
##c7
##b6
##gun
##xec
thro
##erated
anth
anto
inthe
##rete
hax
##inge
liable
##ried
##chs
allt
bootoptions
guifications
disclaim
openwrt
everyting
userid
rootno
isap
screenlet
phen
##avnc
linker
overwh
directorys
dport
realist
metric
##ivi
##project
dhcpdiscover
fsf
1717
gimm
##762
1390
rt2x
##snap
mandatory
libgcc
smoothwall
merry
400mb
efforts
fbi
aliased
scene
defective
100mbit
320gb
healthy
martin
prerelease
farther
mistyped
kontact
lowlatency
rootnoverify
award
hype
jag
lac
lmms
mort
vel
vmm
wig
wase
yap
yuck
##ology
##uence
##d3
##09
##pdf
##ying
##f3
##faq
thos
##onix
##utation
##eng
##icq
forens
##rogen
lim
##rim
noe
nox
nove
upgr
knot
##asis
cabe
added
bootse
chann
mol
intim
devicename
##istant
hdio
fixing
contiguous
editable
depending
win2000
20070
drac
##125
developement
bros
cud
170
compatib
afair
hpijs
bcm943
cyrus
increment
##225
yepp
##hole
704
n00bs
composer
nopes
klick
arial
gyachi
cntrl
mysterious
6881
unaware
september
dependecies
antenna
daughter
longhorn
rt2x00
kra
litle
mfc
pand
ponder
ude
xls
##a8
##b8
##blo
##blog
##nox
##note
##gid
##xi
##hoo
##foo
thay
##inet
itd
youn
whew
##utz
reappear
##env
shawn
##unct
conclude
##oution
ne1
adh
adesk
union
somwhere
wii
backward
hardwire
suppos
flare
##actly
##organ
wireles
ahci
monster
reinstalling
##112
mpm
clobber
faad
subpixel
##ructions
19th
mbs
156
mds
sysinfo
gzipped
scanning
backporting
dialer
trickle
18th
arrick
wasn
##alds
widow
iceweasel
plaintext
wmv9
malfunction
organization
concepts
intellig
##helper
pdft
scenes
changelogs
golden
lifetime
petition
aspects
january
vulnerability
avalible
fundamental
xfwm4
kthx
wmaster0
nintendo
850
bond
cust
cease
dg
hq
isent
moot
mce
ntop
pty
qos
w2k
ym
##sil
##rine
##bec
##nav
##nik
##kie
##oult
inno
##omy
reffer
##icy
##alous
asdf
fromt
caboo
abo
##plot
mos
enforce
gnomefiles
addgroup
openldap
modul
firefox1
grease
said
everythings
channels
realmedia
hehhe
pathetic
16mb
16gb
##zey
basicaly
appearances
controler
standart
recoverable
ency
##paranoia
chattr
geo
gbs
variations
ububtu
viol
craig
##identd
mixers
minimalistic
dv6000
gambas
nutshell
turbop
##graphy
sysvinit
inconsist
terminus
competition
acronym
nivida
quesiton
remastering
destructive
solely
grammar
improperly
adventure
truncate
autocompletion
ootb
xzvf
2gig
9gb
bcast
cj
coder
fbsd
gang
h264
kur
ook
ocr
pmed
r00
tse
vr
xl
##codecs
##ras
##bow
##lime
##long
##nks
##e4
##mus
##mesa
##mouth
##inform
##orical
tong
##anks
##eto
goign
##uent
##eaf
unint
commas
nether
##oses
recipe
hobb
distr
procs
drain
151
114
coul
extensively
earn
##iplex
extraction
scrollback
trist
ubunty
proggy
##vidia
shebang
largely
##335
filer
##words
gmailfs
##142
##adda
##ahahahah
lmsensors
peter
##visual
hcitool
donwload
newsgroups
##index
redistribute
##x864
hardcoded
aumix
260
520
cult
ido
ole
rod
vit
vio
wou
yam
zs
##city
##cies
##iq
##ping
##5g
##hour
##vg
##vol
##786
##atin
##rename
onde
##acked
##usted
##artion
##asse
neut
abotu
unban
apparm
##usader
prebuilt
seld
##ccd
##tently
trapp
userlist
named
##spec
doesnot
##akes
usbstick
created
choc
rambo
wonderfully
ac3
guided
decade
subdomain
automaticallymount
todays
countdown
painfully
slew
photorec
cutter
dling
##905
##naly
carl
implementations
octal
600mhz
##yyy
autodetection
temperatures
x264
skilled
bunzip
##gtk2
skelet
manipulation
##fuly
82801g
hilarious
rootkits
avaliable
lousy
rectify
hypoth
scientific
turboprint
1f
215
d5
ein
fing
faint
g15
mg
pee
pue
##abuse
##c8
##brake
##p2
##1f
##house
##zr
##sten
took
##anager
##rend
hapen
##aya
notation
##ades
debuntu
worker
gobuntu
##oned
someon
packager
moan
wed
programms
versioning
##cond
fluff
machin
wirelss
intervals
auss
1200x
buttons
refrain
142
##mania
wmii
hpfs
horrid
##184
espa
seperated
##883
dban
rollback
xlibmesa
parallels
jimmy
kdelibs4
ewww
acronis
privilages
ultravnc
distinction
unregistered
gracefully
multicast
zimbra
libesd
influence
8200
kim
ngin
oxy
pitt
qa
rdiff
v5
xim
yt
##cj
##ige
##something
##nick
##e8
##ystem
##frog
##wich
##winter
thta
toc
##itution
replay
##aca
##isations
depress
sha1
##pps
usus
thinking
unk
unin
welll
##ermail
erroring
##reezy
afik
moreover
showfiles
nvclock
libtool
mena
##ears
##ianl
##boost
##aking
peb
googlepages
emt
0440
curses
prefernces
win95
distrob
boil
##2440
urpm
signing
errno
audible
moblock
##iii
minimalist
typing
dsp1
centericq
saturday
explanations
flamewar
untarred
##8180
mileage
european
writting
##upgradenotes
bodsda
unhappy
thomas
##wirelessnetwork
libavcodec
1152x864
transcoding
gesture
##akuake
censor
cabextract
apparmor
430
aaaa
bos
dandy
iost
r8
xgamma
##aver
##iste
##rig
##mad
##yer
##hash
##eral
anger
##itation
whip
##isse
chime
champ
##sss
uplink
##agement
##urer
finder
booted
gnust
spes
seach
season
##osher
changed
cloud
##ender
telev
##apped
becaus
##ogle
interview
acount
gtkmm
shellscript
evol
weechat
await
wishlist
artwiz
mkdos
proto
streamripper
##158
folk
digits
productivity
globe
isntalling
calender
propag
cryptsetup
providers
chainload
texlive
ignoring
lp0
duty
goldfish
wg311
rectangle
distinct
warsow
linuxmint
multitask
realplayer10gold
acutally
unbutu
arvind
disclaimer
##snapshot
0c
9100
bread
fle
grid
gasp
herm
ome
p0
rio
uc
x850
yoy
yakuake
##aes
##oly
##table
##jim
##pot
##vfs
ths
##atable
##orad
##anz
##itant
whites
##aching
stro
stale
##develop
deut
##rify
chic
synd
manu
unchange
##abl
ground
##olon
gnew
spm
spont
couldn
openarena
logfiles
##umm
##umin
repet
desktopguide
tyring
questionable
evey
synat
savers
usbfs
twiddle
flashdrive
osk
easyer
##ahowto
##117
func
farm
##proxy
dht
encoding
evan
evolve
speedy
certify
##124
psc
146
iwpriv
24bit
40976
suspend2
##166
umounted
revolution
##tran
dhclient3
cheapest
calib
slightest
animal
##labla
seamlessly
quadro
timestamps
##nnnn
summar
circumvent
##windowsp
libssl0
assembler
governor
unlucky
longest
sasl
##docker
liblame0
##437d05b5
ammount
subsequent
wassup
antialias
nsswitch
sniffer
intermediate
laptoptestingteam
##eaf437d05b5
40976eaf437d05b5
bf
cars
elev
iz
kah
n1
tg
t40
ux
xk
x40
##corder
##dat
##dies
##iot
##iri
##rous
##bash
##0p
##e0
##jr
##pid
##fce
##v9
##vil
##reciate
##ara
reatt
forem
##adri
ubuntuinstall
connex
gos
alan
exter
dile
shoulda
linuxcommand
unle
mock
mojo
gran
##iric
sport
enuff
poff
preconfigured
downlo
##tex
recip
user1
userland
asking
##ogeek
##players
simular
league
osd
##rael
secondlife
##ester
fred
fsb
sysres
modprobed
178
ummmm
gateways
mobos
##254
blend
00000
objective
##756
i8k
apartment
periods
geeky
riot
priorities
##ascal
django
hehehehe
scripts1
##ihng
salv
pasword
dissapears
incidentally
british
inferior
miserably
memorize
rkhunter
##brainz
otehr
adhoc
seldom
trappist
mkdosfs
0111
dind
daper
ech
gates
kib
sist
sque
xchm
##sig
##rpm
##bal
##yd
##hed
##ket
thik
##erad
##atec
##oram
##adsl
myname
##gested
sheep
noap
yourname
alittle
alps
exect
##grab
adj
##aret
cdparanoia
disrupt
##icky
wih
defaul
arth
##appe
##sytem
brun
sales
sauer
simulator
throughput
##minutes
permen
toolt
formatted
##118
##328
sticker
sdax
botabuse
subtle
mailman
certian
rc5
rcx
alternately
modprobing
worthy
complie
continually
##plugins
##shooting
hwclock
##ughty
airforce
tiff
precious
600mb
##hhhhh
libgtk1
runned
nerve
backends
stealth
srv
howtogeek
flexibility
australian
declaration
ninja
royal
hardwaresupportcomponentswirelessnetwork
critic
abnormal
phenom
vmmon
television
270
338
a7
abu
d8
eck
hos
iis
jx
jac
jazz
kor
lone
lecture
oom
pion
pimp
sz
sly
xhtml
##routing
##bx
##gv
##pop
##f9
##f7
thurs
##ini
##store
##lep
##lean
##odo
existent
##ante
plastic
##oko
unac
unsecure
bootload
etiquette
##usa
newcom
trou
defer
defunct
agn
hdxx
optiplex
firefox32
coexist
##ournal
overclocked
nothings
cream
pcr
slang
apro
interupt
breakfast
##berg
##writer
##emp
archiver
frown
macros
dualcore
dir2
friendlier
learning
152
moving
144
171
##760
worlds
##umbers
trackers
snappy
piix
##404
straw
equivilent
juke
uncommenting
harry
procedures
negot
bonjour
infrared
##packaged
krusader
salt
develo
threat
##ointed
approximately
mkinitramfs
louder
legitimate
unhide
oreilly
premium
legend2440
kpdf
intsall
gproftpd
bcm94311
skeleton
232
c2
cet
gian
k3d
oowr
pace
peak
rails
sinc
zel
##rum
##round
##´s
angel
ony
novel
##ctrl
syan
syste
windos
##loye
grp
disrt
intrest
partitioning
##enda
accur
##activity
##iano
overwr
naughty
olds
dpgk
ntsf
flashblock
called
preferr
esata
##113
postrouting
##323
robin
powertop
204
197
discard
uboto
informations
##scr
mdz
participate
openoffice2
##205
propriat
##usband
marc
marry
equivs
rocks
##hoary
##ifiers
jumpy
torv
grrrr
##braten
organise
fishy
brezzy
casual
ironically
poning
reliability
soulseek
pearpc
fabb
##friendly
schemas
wintv
intimidate
gnewsense
groot
husband
ksh
mss
nig
##u1
##rry
##b7
##e3
##e6
##jm
##atten
toaster
whre
revel
onscreen
##bull
living
##elite
installcd
shoe
justin
workign
constr
##them
lines
##amer
exsist
exclam
didi
##ilant
grc
grain
arrog
hoor
teen
meny
##avo
homelinux
loaders
amph
searching
##glx
initng
sd0
##324
france
16bit
acet
nonethe
194
fscked
finland
daa
dawn
bitstream
brook
sysfs
sata2
iptraf
tutor
##135
187
centric
aviable
img3
ispconfig
steven
editions
##kbd
##234
300mhz
mako
browsing
4400
combos
bleeding
doese
cpufreqd
bareb
checkboxes
jpegs
sandisk
##swap
##isync
connec
libgnomeui
ambiguous
##bbbbbbbbbbbbbbbb
ext2fsd
injection
episode
javadebs
damnsmalllinux
gnustep
foremost
nonetheless
280
3ware
8g
aus
bison
cine
dnt
fug
hmp
hva
lest
o0
ppo
r3
rug
s1
wam
zv
##a6
##och
##dan
##iac
##src
##rite
##rance
##luck
##laim
##een
##2play
##hus
whatcha
meat
sold
##arts
##ashing
linmodems
comply
windwos
##grind
shouldn
wouldent
netapplet
##ashed
##uman
##edy
offence
libfa
##itors
swing
usb1
whoops
##oundproblems
bin2iso
badsig
sugar
inital
##rass
##ostro
handbrake
placement
existance
recommended
acce
dir1
20ubuntu
155
obnox
othe
149
148
indefin
pickup
lightest
madness
identification
syncron
survey
##quently
antic
##bmap
hurd
##uda
teminal
700mhz
ich6
sum1
symant
##ipple
safari
pavuc
ridiculously
publisher
pocketpc
prerequis
7800gt
dchroot
comptuer
nouve
foward
saa7134
f5d70
adesklets
nginx
thursday
pcritical
218
299
3306
dload
draft
kden
mere
ox
rars
td
vig
valk
vostro
zo
##cube
##bol
##gmail
##px
##yes
##160
##hk
##find
##kac
##zu
##zero
##sting
ina
##isms
chair
contest
##oplay
##ameleon
oneiric
##urf
problemo
chang
##iax
preset
##osal
ar24
loadlin
dpaste
point2play
minipci
smc
##115
win4lin
##systems
stepmania
coud
definite
centu
roommate
##audios
opacity
police
##206
##178
ext2ifs
wider
engage
##147
##746
adequate
danbh
runnning
jeos
admittedly
efnet
employe
pavillion
apologise
freeciv
wikip
scalable
walmart
linuxmce
untrusted
goddamn
ideea
overwhelm
unkown
urpmi
fabbione
exclamation
760
bj
bry
bail
dor
ding
dail
eager
hight
hrd
herman
kane
lh
rib
r300
tet
tables
vin
vdr
wie
##site
##nr
##ede
##tta
##950
##inct
##stack
toe
##ona
##itng
suic
myscript
##ecom
##eces
stem
progg
orbin
##elist
##dead
tryied
chameleon
upside
##chip
sylph
##uru
heard
unr
boottime
disr
netinst
poe
venture
every1
everyones
user2
modifier
libet
machines
neverblue
locked
monop
pageup
released
localization
##116
belg
daylight
decisions
lesser
certs
##duc
1700
considerably
134
##aneously
renderaccel
##777
sdb5
bluefox
##2500
lcds
##artitions
##ingsoundproblems
fc5
##month
##resprobe
9631
alsaconfig
pipermail
alexc
membership
20050412
reinstal
ladies
mysteriously
##acenter
debuggingsoundproblems
kamion
reconstructor
concentrate
libmysqlclient
exemple
subscription
bootsector
sysresccd
oowriter
pavucontrol
2b
2wire
340
366
4k
5100
792
berly
econ
eph
foul
gas
l1
lz
sap
srt
##aer
##lass
##0s
##eus
##pim
##9000
##610
##flo
inbet
inactivity
##utious
hast
comands
lift
stell
shirt
chron
##charge
##channel
someh
adri
##ffice
souce
unify
serach
##olife
disown
##aging
serverlayout
webu
claw
##uma
##editor
playin
moderate
##convert
passow
bling
machien
ipaq
peg
overs
emac
smo
fraction
##igned
recommand
metam
mailto
cdromupgrade
obv
bt878
truely
duno
005
consideration
##136
don´t
loop0
##305
knoe
oo2
unknow
##666
suspic
carrier
cs46
##144
multipl
stage2
trey
vertically
dcgui
accesories
libqt4
sonata
dosemu
assumptions
dissap
writers
xcfe
downlaoded
electricity
j2sdk
##bellion
xulrunner
autohide
drawbacks
scguy318
gutenprint
whistle
sophist
sisters
obnoxious
employees
2debian
744
ame
aero
fel
jf
mroe
paly
qmake
sine
s13
sgi
vlet
wary
xor
ziro
##aully
##crypt
##d9
##bac
##lis
##tw
##mgr
##pak
dows
##ota
##ereus
anywho
tryign
##ppings
conj
conff
asian
filetypes
somewh
##ida
compel
scott
disabling
spank
spiff
seen
opend
openchrome
readline
userfriendly
firebug
modutils
isorec
araf
hobby
festy
##aving
##ription
twist
woes
##enty
##ently
interference
choise
glipper
winff
etho
163
##probe
virtualized
lev
drwx
1998
157
certification
##iku
ddc
backgrounds
books
activities
gconfaudios
##407
##lius
localeconf
##333
##222
spammer
##oooooo
ico
##rett
hwaddr
inet6
calif
blogs
massively
candidates
stallman
##machines
pakc
murrine
##garvey
rapidshare
##gggggggg
libvorbis
sourcecode
plymouth
hybernate
hondje
november
unchanged
##windowspartitions
nouveau
inbetween
3v1
cil
foudn
hlep
jst
jud
kink
kol
kwrite
lux
mbit
pct
pim
sore
tbird
taint
ue
ugl
udeb
vie
xmas
xresprobe
yada
##udge
##isted
##bw
##lit
##god
##tx
##tune
##five
##8x
##8000
##watch
##atim
##stion
itx
doent
##itons
##arr
##enote
##ayer
myrt
libe
##depends
chvt
nose
thans
plot
aptana
bootchart
partman
commad
appo
sombody
dish
discon
spark
poop
firehol
termianl
libopen
quinn
keychain
cram
prin
folding
scripting
differentiate
shareware
##standing
12gb
sender
1680
intels
decss
191
expo
hopeless
psx
##ikmod
sucker
awstats
143
verd
misinter
40mb
##keyboard
snake
snipp
responce
##ressed
##cool
lyn
puregnome
konquerer
gfxboot
gtg
freaky
##mike
harware
yukon
nxclient
j2se
ich8
gnomad2
fbset
##forwarding
ubunti
responsibility
efficiently
troj
simultaneous
##front
apears
nautlius
tcsh
zlib1g
pleasant
pwns
8800gtx
bulletproof
aqua
exaclty
nerds
unregged
dchp
honor
cacher
fifth
hobbsee
aussie
torvalds
poningru
amphi
acetone
hvae
arafang
345
460
bren
cite
cwill
e100
fra
hill
jj
lpt
msp
oto
sj
sill
s20
vgn
wad
xmm
zh
##cvs
##uo
##iad
##ben
##breezy
##lug
##flex
##486
##4965
thir
thak
beter
##lle
libu
##riv
sod
##this
knw
alw
alway
atp
plant
aptit
htere
##arest
unbel
##iab
##abi
##007
spac
spons
gnome3
##apse
clicked
harden
nvdia
syncm
quarter
coo
br0
##plex
amavis
##boss
prerm
availble
apache1
handful
faac
##proper
193
ermm
langauge
musicbrainz
finch
mdf2
pidgen
147
rhine
inputdevice
techie
##775
##201
##5500
hummm
sleepy
##libs
epia
guests
##undavia
inspir
##daemon
depths
fudge
jean
tsk
bazaar
wifes
bonus
hrmmm
forgot
kyral
downt
threaten
libmikmod
robotgeek
jonathan
avaiable
p5b
neeed
nicht
suposed
##naros
obliv
continuously
thigns
purpzey
backticks
deliberately
abbrevi
gordon
absolutly
ondemand
pebkac
emt64
reattach
jukebox
giannaros
belgium
sophisticate
mdf2iso
664
aob
cox
era
ebook
fom
gsm
ire
lind
lnx
o2
otr
pill
ria
vic
zax
##a9
##det
##pret
##hid
##zjs
##oure
beach
##onal
inline
##seb
##otry
nother
anyhting
meld
liquid
consens
##asl
helpcenter
##ulu
scatter
linuxdc
abouts
bootcd
approp
appview
##usive
poison
prepackaged
sear
openal
ars
firs
##mbo
keymaps
pest
monit
entitle
norway
availability
##emo
closet
basename
320x
mainline
200mhz
20g
chmodded
paranoia
forcefully
privately
irony
valgrind
touche
mkay
misinform
limits
##blk
##302
revisions
yeha
radi
##servation
moto
zeroconf
humanity
beagled
0ubuntu0
verbatim
turtle
superm
batt
djm
6629
lpd
thnaks
dictionaries
starterguide
pakages
rejected
7600gt
bioses
rosetta
gyach
##irtual
mjr
acls
journaled
##puppy
instrument
atomic
religious
##frost
5901
semicond
deafult
rtl8187b
softpedia
mingw
whisper
i´m
pizza
##omatix
xresources
deutsch
antialiasing
hardwaresupportcomponentswirelessnetworkcards
hooray
disrto
isorecorder
consensus
0ghz
310
740
865
939
b0
cipher
d3
dank
h1
kg
mrt
mtools
national
ope
rapt
ting
tint
vod
xbase
xvideo
##aj
##cord
##uage
##iency
##ees
##fst
##450
##v3
thast
##aton
bend
##st0
##onic
rejoin
hairy
shite
solo
chem
##odles
linu
##ffl
manif
desert
clt
clash
openmos
updat
##working
afterall
##intall
keycodes
coord
##ialog
##861
##gler
##ished
postrm
##322
dmca
leo
##mpc
botsn
201
subword
##herd
speedtest
par2
customizations
175
verry
ehe
1366
george
deluser
colors
rtf
50hz
humour
svcd
concaten
bzimage
256m
cs423
equivalents
##ungfu
fc2
xvidtune
lufs
mutch
ata1
hubs
flightgear
americans
peerguardian
ttys1
representation
lengthy
##advance
terminator
##llllllll
implications
brazilian
9999
algorithms
screencasts
inexperience
7667
gentlemen
fruit
drawer
burgundavia
##xkbmap
chocolate
espaol
oskude
valknut
openmosix
680
gin
gle
kas
ling
lars
nj
nil
owe
px
pck
pio
r2
santa
vist
vip
weed
xn
xer
zon
##d6
##dig
##size
##n0
##nh
##tot
##mult
##mys
##hdd
##fh
##atalk
##inity
##ntall
##sene
##uting
ree
thatll
forge
##pted
##igs
chsh
##ods
exs
##nds
okok
capp
wouldn
setgid
setxkbmap
scot
##irate
intense
##aga
downl
clunky
recode
recnum
aggress
fluen
##astically
sws
criter
amr
webhost
freep
flashy
##mates
##mature
multil
multisync
virtualhost
aren
retro
nickgarvey
vera
definitly
ttyusb
integer
politely
broadcomm
cutlers
##freeze
800mb
##999
spammed
attachments
mpegs
##youwant
immediatly
prefork
airo
pgup
counterpart
tracepath
hlp
libpango
pitivi
kyle
vvv
uncompressing
armor
82801db
spoon
appearently
233mhz
stopping
relevent
##tttt
meaningless
3ddesk
abstract
ladydoor
drebellion
morphix
libpcap
sketchy
squirrelmail
noapci
arthur
disrtos
sylpheed
ziroday
fluendo
cutlersoftware
agh
aaaaa
bf2
came
cir
dwm
gone
ih
jol
kc
kio
lfe
m0
owr
puss
vhosts
xmon
##race
##route
##gan
##e5
##mal
##pell
##foot
##4b
##ering
##owed
hazard
gettext
procces
dejav
syd
wanted
nearest
##doom
##uliar
outcome
##arep
pax
unim
##ases
commend
etx
netdev
netatalk
devote
serveral
openprinting
aggre
rootfs
libfl
keypress
colo
blush
neverwinter
passwor
wobble
dvdr
smt
altgr
localize
textbox
basket
bigpond
bochs
##1080
umn
mik
indones
smbtree
##phor
patches
ie4linux
248
##esaver
13th
##2007
primaries
##151
morons
##vention
foo2
freenet
dyn
hymnt
juice
deskto
tuxmob
beneath
pacman
unchecking
mozill
krita
mysqldump
unfriend
grandma
slapd
severely
##fdll
acx100
uncalled
uncertain
blablabla
##rific
unresolvable
pstree
steady
emesene
intermittent
kwif
praise
consequences
sivik
unionfs
tongue
netherlands
stroke
sauerbraten
7c
bh
dbm
fgr
iid
kow
kub
lf
mf
ogre
rah
sx
yur
##ais
##das
##late
##gx
##jn
##fuck
##vu
##zie
##onlinux
rewr
##icular
fortran
##ria
shane
upg
##opher
male
##amed
cautious
bootscreen
netmeeting
started
clint
logos
written
termina
hoo
holl
hdaint
firfox
##ipv6
##spr
exten
brake
corel
amor
clickable
twenty
glu
##ittie
##oubleshooting
##1111
laz
texts
primit
livecdcustomization
##644
reluct
##808
##ocation
interestingly
nonex
errror
england
cams
##terminal
mister
alsamixergui
606
##automatix
##555
patition
bcm4311
spammers
##going
239
automounter
operational
##hacker
puff
tahoma
glibc2
analogy
##graphics
karma
libglib1
oriented
distortion
##mmmmmmmm
awww
rtl8139
battlefield
conventional
khadri
linuxjournal
224351
exacly
tommorow
inherently
franca
libwxgtk2
##message
newname
apostrop
ususally
hrdwr
californ
syncmaster
botsnack
hymntolife
295
630
eternal
g2
gart
hula
klib
malloc
nk
r00t
treen
xpt
##bor
##bay
##lant
##lite
##lace
##pin
##past
##pher
##fus
##zt
thy
##anity
inverse
##rets
##itty
android
fiel
anyoen
stac
dektop
nos
conclus
goat
diference
atmel
compy
##ulz
hep
htink
unatten
##pendently
chances
##iast
preloaded
##cky
reclaim
##beat
teeth
fluent
libk
livedvd
extrem
passkey
coax
blam
peice
prat
clicky
accesspoint
oldworld
##cla
##enta
glut
detlef
docx
nautilis
##overy
##647
fret
hda0
##ceptable
dirver
dirvers
##comet
25gb
gaim2
privmsg
indy
225
independently
##photo
msg00
azereus
182
cents
formula
sndstat
##good
transparently
gladly
mmap
coders
ahhhhh
js0
##theora
pinpoint
ruby1
dashboard
1501
ppas
kmplayer
hadnt
salut
ttl
prevu
probleme
grok
bastards
beacuse
shorthand
icemanv9
oftc
##documentation
isapnp
gimmie
wikipage
passowrd
myrtti
otoh
unfriendly
treenaks
0a
7174
dic
d600
easter
fag
hun
jep
neck
pys
pdc
pascal
r0
sce
x200
xzf
yoper
##ained
##dome
##nf
##nix
##mk
##minal
##metic
##2ban
##wk
##inator
##oring
anir
##ntp
haft
##eserver
##buf
fifo
witha
##geon
comic
##igu
steep
propper
##ustion
dept
nofb
##ople
##terms
##asin
usign
mappings
##outs
##urch
adult
scour
man1
parttion
##wnck
##abes
##imouse
etter
##imed
spider
checkgmail
bury
logically
recive
argb
10g
10th
libdb
libwnck
understood
phon
##installhowto
##sym
bliz
##figure
dvdcss
esdd
hostile
poweriso
##angel
persu
quicken
blackberry
ftpmaster
skull
managed
rc0
##121
##505
sysconfig
comments
##430
136
identity
distributor
##usbstick
steer
equivilant
##tract
234
##coon
##unta
motiv
##byte
fc6
macbookpro
##82e
puke
mutl
##initial
nomode
wpahowto
substant
intalling
centralize
ion3
neighborhood
pnpbios
competent
tilde
nzb
depencies
ontopic
sofware
##mcg
libjpeg
emphasis
pandora
intelligence
bunzip2
trojans
cwillu
sponsor
##fflags
xmonad
sydney
##arepositories
3f
465
ccd
fink
ful
g650
h3
hunch
ike
ket
kir
nine
qcad
rab
rts
uu
zom
##cb
##cgi
##uctor
##svn
##gor
##mame
##fied
thresh
thsi
##strate
##llon
whore
##etc
##eted
##otem
##arrow
rend
##icient
butter
##adow
sudu
asume
filebrowser
seeing
plague
packard
packaged
imma
apport
##plate
##ima
##achines
spain
preffered
sequent
##osis
##teen
##ilet
suppress
sounder
defaut
userdel
##showto
##mma
armag
1045
##ipod
lives
undernet
probally
##spy
##spir
coole
brag
disklabel
naim
debianadmin
phpfi
wold
applicat
settingups
smplayer
lastnight
multif
##fest
gpasswd
stray
memories
##ertz
highmem
##108
##107
ergo
transset
##iking
freshclam
174
errored
azer
delire
delta
##131
##138
##405
##152
arrr
##black
##307
symlinking
classify
##trans
omn
packaging
##groupware
enlightment
precision
danny
burst
jealous
pitfdll
intentional
##firefox
kingston
kitchen
##sched
pciehp
rapidly
##iiiiiiii
gettting
buffers
derivatives
titan
netwrok
citrix
ar5007
hydrogen
tecra
##drivers
equivelent
lappie
##rillic
pertinent
kxdocker
dshep
peculiar
instaleld
neccesary
rambo3
multitasking
propriatary
century
stellar
misinterpret
dejavu
433
bount
carth
d0
eith
ecc
etern
nh
npt
needed
pes
tif
tact
vx
w95
xb
xg
yan
##c9
##don
##i2
##bes
##lm
##lient
##jb
##mother
##ybot
##6d
habe
##very
##kell
steel
##dem
ifyou
tryng
##rior
no1
async
##amous
mabye
plaus
##eah
uninst
##item
guarent
guilty
##imer
##irable
##agger
addres
##tely
checkin
backround
defult
stuck
##issions
blaze
prgram
usbdev
##ilde
slav
entail
enthus
simon
passwordless
rebooting
fail2ban
realistic
deleted
winner
arounds
spacebar
endsection
##646
envi
bott
required
quickstart
##127
explaination
hischild
##248
11abg
mdns
ff3b
visa
etherape
80x
hotter
inputrc
mkdev
tablets
political
##held
##printer
publicly
cmon
##902
##libet
omni
##etely
juk
prefere
garage
falcon
ns7
##gedit
444
upgrader
eleph
harmful
wizards
texted
fbdev
powere
professor
onthe
cxoffice
girlfriends
thorugh
quotation
including
sandbox
redundancy
constructive
##zzzzzzzz
remotly
initscripts
##basic
snes9x
succe
tolerate
hydra
cruft
realease
urgently
appriciate
thoggen
shackjack
gqview
acheive
broswer
tseng
kahry
conjunction
unbelie
mrtg
kwifim
fgrlx
unattended
nomodeset
coolest
2ubuntu
2tb
390
4ubuntu
5ghz
943
ald
bid
bake
dappers
jpilot
lb
lor
litter
mild
nathan
oly
pete
ror
uck
wub
xsl
xdvd
yadda
##uecd
##dual
##sue
##lies
##gly
##e7
##woo
##qw
##anded
inad
whci
##ena
##icted
##alis
##buster
##eeagle
##roject
getautomatix
withouth
##rise
solder
workplace
conce
goes
scons
##eagle
confg
imps
grah
whys
##thern
startkde
logger
defs
showpkg
autot
coasters
easially
computername
amilo
nazi
searchmode
possable
leaf
##quick
releasenotes
preferances
belie
joa
##ciated
##west
pathname
##complete
expier
replacements
evga
mysql5
mozillazine
viewers
administrate
microw
visable
generaly
taskbars
streamline
scrollkeeper
##409
synth
##versions
##hey
##337
designers
concise
ican
classical
labtop
##iction
xxxxxx
rfc
##kbs
serialmonkey
sparse
##udos
600x
##363
dotn
##ancer
potato
9660
importer
gcursor
##downloads
intellimouse
masq
apmd
deeply
swiftweasel
reproduc
benchmarking
dx9
nubbie
gallery2
avaible
premade
werid
priviliges
wtih
portforwarding
processes
religion
skippy
apperance
victim
weirdest
frickin
lkml
relaunch
lacie
flare183
violation
salvage
syanptic
constrain
california
esddsp
armaget
settingupsamba
##schedule
kahrytan
0k
385
497
4gig
533
bitor
dru
ddd
dys
effic
ebuild
fare
gtf
g122
hk
jak
lates
ooffice
odbc
tf
tes
umb
ves
##aay
##i1
##rage
##lk
##ested
##mov
##510
##wing
##wed
doct
##seconds
##eta
##etool
redm
##esis
##alia
##eex
##rocess
fidd
chug
##unge
##terror
knob
alra
algu
fromusbstick
windowing
packge
packges
##ffin
uno
univ
unselect
unpriv
chaning
##ghost
##usk
command1
##iester
newt
server1
goodluck
ide0
firebird
##applic
phor
crw
##ferences
peach
webdev
##oundhowto
elisa
copying
intervention
didint
generating
testers
poster
121
vmstat
##bale
##baord
handlers
fai
1900
1997
extrarepositories
importance
radeonhd
newby
recording
separator
planner
##aaay
##supp
gots
##401
mornin
gnuplot
##557
knopp
occure
ours
##170
physics
cmi
##holder
sche
vidcard
messs
##eeeee
apollon
##elsoundhowto
48x
supybot
leftover
workgroups
##263
vt82
667
seaphor
aborted
roaming
seeders
##iques
capitalize
russia
sipior
##scanner
nige
dissappear
orientation
vulnerabilities
iwl4965
ferrar
ferron
rectang
gnochm
implicit
mimic
libpng12
partiion
pedantic
disapeared
855gm
##mobile
semicolon
mathematica
attractive
quodlibet
mulit
wacky
unsuccessful
illustrator
cousin
krazy
tristan
bcm94311mcg
s13gdm
arafangion
brenner
aobut
semiconductor
manifest
swsusp
hdaintelsoundhowto
560
aze
akin
baud
fde
gust
goth
gto
hci
kad
n82e
qb
tac
troy
ull
von
vserver
wll
wath
xubu
##aur
##dale
##iion
##bf
##gain
##e9
##tions
##md
##232
##hin
##ficial
##kittie
beef
##intop
##inum
inability
dodge
##utch
##arg
##roc
##rying
comfy
shy
soy
church
noes
##opinto
file3
##asses
diable
digest
alle
somekind
##ides
##ares
sayd
confidence
cdc
##planet
spill
##agers
##upload
reputation
defend
readily
readlink
usergroup
ar52
tooo
hd3
##ipse
feat
swim
kev
secur
mach64
neverball
resul
apc
woe
##matic
currupt
audo
##wrap
handheld
worng
acm
dirt
ircii
##encing
##encode
209
198
weirdly
bts
operand
##ocities
##logo
provided
torrenting
touchy
urs
urself
##436
##765
1360
beginning
multiplex
snot
##anew
gota
##iserver
##lige
##172
infamous
kiddies
havoc
tailor
##thebot
wavs
favorites
##387
yuou
pwc
interactively
##boyadvance
arguement
announcements
sabdfl
decrypter
8139c
milk
military
sg0
stabil
consistency
redownloading
##chains
8776
googleearthlinux
operators
enclose
alreay
aaaah
graft
libvte
embarrass
gems
semant
paritition
court
swtich
packeges
pivot
reformated
vacation
privelages
summarize
intresting
suicide
oblivion
djm62
tuxmobil
primitive
hrdwrbob
kwifimanager
xdvdshrink
armagetron
290
ebooks
fub
gifs
jave
kline
mz
mage
mrob
oidentd
r200
sset
tthe
tease
vts
vram
yy
##azy
##dh
##l1
##gery
##550
##3k
##kungfu
##zing
##outer
##oung
##stig
itz
##omips
##argh
cand
##geo
proprit
##dex
chec
therefor
atx
##lok
hem
##tpath
scren
unbu
conform
commer
##imon
preca
newfile
##istration
##aptops
goodnight
##ogg
phill
hellanz
##synth
peers
overrun
pcman
sshed
pastebins
keeps
automation
permis
gene
formats
nautilius
macd
stran
##lette
lemm
206
20mb
hddtemp
encfs
1150
##503
##502
bitpim
##offile
223
226
##many
176
giggle
specialist
forumdisplay
geocities
1024mb
cyrillic
##968
scrot
plese
spambot
godaddy
##904
osx86
dvr
hava
jpgs
##987
##973
yoiu
accidental
##composite
translator
cracker
crackle
jdk1
##378
gplflash
##000000
nforce3
lucas
zenwalk
whitout
9200se
puppylinux
jammys
zeus
##styler
6800gt
demonstrate
dropping
artists
directives
suported
rythembox
employee
givin
kalarm
sse2
notoriously
necesary
dexconf
hiccup
hlds
distrobution
spontaneously
elevate
dilemma
riotkittie
symantec
whcih
hellanzb
033
466
aur
aeg
bck
eis
funt
founder
fstype
oil
obey
pare
roo
rud
sbm
t30
ues
v0
xj
zz
##course
##color
##oes
##oop
##iall
##rac
##911
##2200
##754
##erg
##lege
regedit
onl
##eso
##esight
canal
##aden
withou
myusername
##bled
##bles
##defined
soll
chmode
noooo
asia
##chi
filelist
##asing
diver
##outil
##idia
##idecode
nead
##ectl
cahn
plas
aby
sudoing
##irad
##usr
command2
premission
##apult
logging
mountain
remasters
##osed
wrappers
readd
##shine
##cause
10k
##appier
fluid
actaully
quak
bliss
##aki
usbhid
resid
resizing
##solaris
##eph
emachine
pagefile
interweb
specifiy
glue
moved
movements
##ucks
experince
dmidecode
##product
##encil
20080
untested
detecting
retire
encry
mush
damm
##ocity
advis
pming
joins
althought
redetect
302
131
pasting
fedor
georg
mispell
camcorder
##1330
digic
188
polpak
sdb3
##163
uploads
8001
##bugs
concrete
assignments
adjustment
hdc2
cheapo
techniques
dosfsck
db2
juano
0x7
##isohowto
defragged
##secs
##scripts
partioned
windoes
ademan
##372
complexity
lua
helvet
neglect
superblocks
benif
rogue
mozdev
saving
bogomips
reactos
epsxe
funkyhat
thoug
9800pro
automake1
synchronization
greedy
traditionally
murder
hiddenmenu
diveintop
##partitions
sneakernet
schema
gadgets
libcairo2
stripe
##jjjjjjjjjjjjjjjj
rj45
kilob
940gml
preferrably
kdenlive
danbhfive
cs46xx
##fstools
concatenate
criteria
klibido
ettercap
dshepherd
poweredge
diveintopython
297
754
795
820
9300
aper
oce
opa
ptp
piano
randr
wea
##abu
##uro
##uly
##bian
##lar
##gust
##e2
##tn
##mg
##atis
##stalled
inev
whome
##aru
##escape
##ican
##rod
useage
##mey
ork
installled
knight
knife
allso
neil
caff
abd
scro
sclass
manuall
unuse
imlib
##ermine
spash
##agp
##osc
##osible
checkmark
repackage
verson
termcap
debhelper
modded
grubhowto
##mentioned
perchance
elit
##matrix
sdf
sdd1
usr13
following
##sets
basement
mousewheel
32gb
specificly
ares
expos
illiterate
retre
253
steph
refund
cuase
141
##phase
superb
azur
##assistant
eht
routing
trackpoint
countless
##770
horde
chowned
##155
##301
espeak
oggenc
flags
##ismapping
##981
photosmart
troubleshooting
touchpads
objectmanager
platinum
pinn
inspire
recurse
isntaller
heavier
##356
ncftp
legality
macbooks
0ubuntu4
hexid
dictate
literal
repartitioned
expense
masoch
benq
persistence
vcds
starterbar
paket
skydome
mcp51
ejabber
creepy
intltool
htpc
tasks
siocsi
wasent
spesific
chicago
synatpic
gconfaudiosink
abbreviation
reluctant
francais
persuade
##quicktime
alguien
ferrari
helvetica
410
6111
9x
9xxx
aro
bath
d3d
fis
gpt
gconfig
kj
k3
kod
lans
mget
nds
qq
q6600
sot
sri
sapp
vor
woth
wounder
yacc
##oi
##oing
##rk
##lv
##gib
##jah
##m0
##pan
##pol
##186
##hu
##human
##4m
##kop
##anal
anew
inner
##aro
##arian
onwards
##ening
forc
##account
##alias
ubuntu1
anyones
##ecimal
proport
installd
##riage
sob
sop
##ssy
workd
conected
##though
##eedit
##loit
hei
pap
confess
##icker
enum
wile
tras
useragent
betwen
10mbit
libquicktime
firefoxrc
passport
disk2
diskless
peps
prer
webmaster
entity
elive
copier
interchange
processname
##ahead
multivers
winzip
clog
docbook
johan
funk
audioconvert
strat
dualscreen
numerical
tabbing
ers
158
lessons
respository
fglx
financ
standardize
md1
sysk
24x
verion
wlan1
1394
##2005
attend
shooter
##rowser
formerly
blueeagle
lifehacker
##993
pleee
##connection
imagination
carlf
##status
##882
lamego
##compiz
treid
##smtp
##284
##846
sb16
clamscan
yupp
administrators
eventhough
##location
attacker
powerman
substitution
768mb
rtl8180
theoretical
gajim
robotics
##oresample
zombies
portugues
##style
tzconfig
##worthy
audioresample
2k3
zxf
medical
650mb
mjpeg
conventions
tidy
absurd
appliance
82845g
untrue
repositores
katapult
##xxxxxxxxxxxxxxxx
shorcut
kazaa
equivelant
##radio
##authentication
##protected
dalnet
1200x800
whitespace
unacceptable
indefinitely
mrobvious
propritary
3b
368
5600
570
8th
8187
cade
dbe
hind
ios
jboss
kel
khz
korn
kaze
kudos
lum
litt
mhh
n64
rus
rdepends
u3
xrd
yop
##dude
##draw
##laptop
##laptops
##nl
##0d
##e1
##mill
##park
##2theora
##xs
##hee
##fia
##fir
##fuse
##4d
##wered
thefile
##atley
ineed
inacc
doku
##oman
##itting
##etric
hace
##eno
##adi
ubuntuforum
shp
shelf
nogui
##cher
dirc
mabus
##ilter
nek
##does
##urance
##love
##loop
##oking
heir
##abil
moc
##009
gnump
sprint
enson
prety
predefined
newdir
sez
gnomelook
backupp
edd
debmirror
isc
phaed
probaly
##installation
hella
videoplay
disk1
slmodem
entrance
leaving
apsta
dependences
emit
##mative
osu
glor
switching
##ahl
##emall
##setting
wondering
##overable
dmsg
##interface
ircing
uninstalls
uninstallable
subs
btnx
##249
##504
##scroll
busines
msgthebot
##neighb
dud
behalf
denote
datacenter
hacky
##408
denyhosts
##202
sledge
##hex
humble
itemid
radius
widesp
carbon
carlos
ffmpeg2theora
##146
hotplugging
determin
##compat
uids
xvjf
mesage
0x3
becuse
pengu
partioner
##783
##mended
muh
patiently
cnr
undestand
converters
decryption
quotas
inclusion
ieee1394
##rescuecd
eastern
##fluxbox
cgwd
gripe
hauppage
dcopserver
debugging
##wyas
gatos
notorious
chnage
ricoh
gawk
##amd64flash
beggining
wallpapoz
iostream
##eradius
bootloaders
accurately
poeple
suspicion
zaxismapping
320x240
##multimedia
blizzard
carthik
plausible
joaopinto
phoronix
remastersys
whomever
financial
widespread
298
319
428
576
536
5700
845
aquire
delp
dli
frist
gcom
gave
hj
hpa
iq
iot
ices
i486
jem
ogl
pss
pcc
sow
slect
v7
wfm
x60
x16
xserv
##rin
##bcd
##lord
##ggy
##made
##pw
##630
##fal
##khz
thot
##oub
##orhood
dope
##review
##itus
whta
##ett
##oty
reilly
thatd
insta
withing
prozilla
iftop
shaper
soory
chit
chech
upwards
##ophone
asrock
filelight
alm
##asil
dil
##antis
usally
##ighten
drip
scumm
manners
cdburner
commmand
##iah
gr8
eno
##agn
##loads
tyler
isl
argent
libid
lib64
libao
menue
am2
slam
tweek
peopel
resizer
flash64
xpde
##template
gdmflex
regain
saved
##daylight
freeradius
reconfiguration
stickers
decimal
subtract
199
1995
##umented
devels
encumber
ums
daem
psd
privledges
bitcomet
resize2fs
##chooser
splashimage
unmounts
##605
##60x
necessity
donot
##blank
mistaken
##175
##998
ic56
rescan
##coz
technic
collapse
0002
treo
optimus
##852
gm965
windoz
webservers
yuk
stronger
##726
4294
proficient
##fmt
flight5
upgradable
xbox360
affraid
m4p
lircd
##older
xmule
bogged
reactivate
dabble
bastille
ehhh
sandwich
xtreme
armyops
wc3
haywire
quirky
450mhz
384mb
cronjobs
parititon
bkspc
##hammer
freezes
##enchmark
uvcvideo
mongrel
inconsistency
##hours
barebones
hermanzone
acetoneiso
motivation
nptl
##woofer
ferronica
gnump3d
businesses
0beta
7th
bst
bien
bolt
cumbers
ead
iit
jn
jitter
kee
lens
lingo
nfo
opc
r01
roof
x32
xauthor
##uv
##rated
##guru
##0w
##yrs
##9a
##512
##3000
##611
##4200
##720
thts
##erates
toilet
##oni
##onse
dood
##rency
##etion
reas
##erella
##mein
comercial
##ecient
stalk
deos
##riad
cham
up2
asum
##asph
##cedega
##loo
plural
outer
##soe
sudoedit
mang
##eably
uninter
cddb
serio
##plain
sometihng
##uspend
commando
newlines
gnomevfs
##osing
clon
firest
hoarty
holly
liber
libfre
##ogw
swamp
firefoxamd64flash
secrets
##service
bloot
blasph
ipupdate
amorak
simmilar
resoult
lotsa
flashgot
dvdbackup
##matically
resolut
smbus
realm
selectable
lawl
iconv
lscp
##otek
supposed
boon
subwoofer
isntead
erk
remotehost
wifihowto
refine
11a
finance
pids
##drives
rulez
##umbler
colorful
shutdowns
snail
variation
##403
arrgh
img4
cypher
##iserfs
bcm4312
##226
libdvdnav
##ooooooo
faqguide
219
gf2
policykit
reformating
lnk
collea
pygame
maxima
##193
gta
##848
shady
tuxfiles
turkey
dumbass
heheheh
bullgard
dads
brasil
##graphic
bulky
miracle
vobs
writen
everythin
bacula
martian
seb128
grafical
noticeably
wickedpuppy
arcade
donwloaded
reinsert
sugestions
perfom
aaron
jinx
inconvenient
anthony
reffering
culture
prerequisites
##months
spiffy
inexperienced
pussy
libflac
bitorrent
semantics
pinnacle
ejabberd
380
377
5d
596
6x
aks
b5
bx
bark
bourne
ccc
celt
gist
hull
iu
iy
i3
koo
lwn
l10
nome
opent
pq
rabbit
sut
sny
tornado
ugo
vix
wj
xa
xfe
xclock
##dub
##bord
##bies
##last
##jcp
##jest
##pig
##9us
##1d
##2sw
##hre
told
tooth
andi
instr
##isnot
fios
sudp
mybook
##igation
lily
##else
shi
chi
chdir
chicks
##asi
##eeds
comparis
##urve
##aresu
sci
unfor
##pensive
commerical
##rrus
##iak
grav
##olute
##00d
ene
premissions
newish
seme
means
startfluxbox
addtype
went
clvm
bucket
hardlink
keren
soundserver
given
defense
##sho
modding
isle
argu
10gig
xorgcfg
##ugo
nameoffile
##pled
distcc
slime
apcm
loginscreen
sdf1
##ittion
esr
localtime
##ibl
##configure
##ruary
fritz
sendto
##reamer
crashy
acess
acade
strain
##104
hitachi
catid
##ocumented
finde
privl
wann
blocker
beta2
commonquestions
newbee
errrr
basicially
compliment
misconfiguration
worldof
##devil
gotch
tuners
##303
##162
pulldown
occass
appreci
smartboot
##336
##identally
destkop
depreciate
##992
voy
mixed
##909
finalize
dangit
hwilde
xxxxxxx
accidentaly
dumbed
crontabs
packagers
trek
##central
opensrc
undocumented
##281
437
fuseiso
priviledge
gmount
meeting
tickle
sbc
idiotic
mcrypt
pgsql
luk
verbosity
servicename
stdlib
psycho
bonnie
glitchy
nolimit
hearts
##41b
g520
psychic
drwxrwxrwx
trailer
kann
abcde
healot
sloppy
wuts
rhythymbox
princip
fundamentals
##0000000000000000
inefficient
autoconfigure
electronic
nrg2iso
##releaseschedule
habbit
ndiswraper
direcotry
episodes
prefferences
vuze
mailinglist
##factory
jahsh
forensics
unleashed
squeak
livingdaylight
ar242x
h1st0
extremly
threshold
ff3b5
importerror
aegis
digicam
##neighborhood
cumbersome
apcmag
1d
315
3100
470
8192
913
aven
bern
cout
fou
fah
gday
gross
het
hink
ki
kget
nup
pess
ras
river
sag
verm
wro
wiser
xo
xix
xfer
xwine
##cation
##copy
##iers
##rer
##nvidia
##mtp
##mapping
##party
##132
##hail
##found
##wee
tobe
##reet
reorder
onw
havea
fiels
sude
##gebra
##igth
orb
looo
howd
shod
asd
atis
compwiz
##orted
##fff
mann
unans
unlink
unhand
unbear
cd1
serif
apperently
##abenchmark
##plorer
grumble
##img
##imax
disgust
couldent
##topia
opena
edonkey
hip
afp
gives
##shield
showsto
nvtv
nvram
island
arn
##console
undert
swich
sweep
##spam
kent
ipx
##iances
linkage
diskette
webroot
webkit
naive
editted
dpk
emot
emachines
toolbox
winter
recomment
laun
##node
talking
lsattr
roc
maco
161
dirrect
drastically
##1016
encap
encoders
159
153
##1234
respositories
0666
population
unmask
urgh
##435
originate
successfull
vim7
profilemanager
tty8
horrend
insertion
##1500
183
progam
domu
infring
dystop
##theme
ifupdown
massage
tihn
##379
fx5500
##929
avermedia
ibooks
mx440
euros
##727
animals
despise
breazy
reconnecting
krb5
tomcat5
##webplugin
8139cp
7600gs
ashfire
gyaresu
##c2a
weng
alec
homes
impliment
libtcl
rumour
deployment
e2label
8500gt
##hhhhhhhhhhhhhhhh
partiotion
rythymbox
powersaving
disapear
ejer
prelinking
february
##badger
aixgl
messege
apachectl
libmad0
171795
hardwired
##silver
ximian
jxvf
gordonjcp
joliet
autotools
redmond
n82e168
strangest
carlfk
mistakenly
firefoxamd64flashjava
##2swf
##isnotabenchmark
733
8185
a3
agra
cmp
fcc
hiss
ise
jc
jones
kinit
lw
lll
lick
mact
mumble
nmb
oder
ovc
pthread
rank
spt
sreen
ugrade
vain
vpc
xclient
york
zam
##uan
##rails
##bably
##liness
##nly
##nome
##nows
##m2
##pany
##910
##1b
##xor
##xbox
##hem
##fing
##fao
##ville
##err
##atar
##stor
angle
##sect
whee
##otype
##enu
##aling
ubuntu6
ubuntux
myhostname
##igue
proce
orbit
##ppe
contemplate
##changes
diversion
somedir
compens
willing
aber
##soya
shouldent
setenv
confs
##pended
##abo
##ached
disap
speek
envelop
wedn
##tever
##oset
truck
userdocumentation
agin
##readline
libgn
libboost
synclient
##ission
coh
copp
crush
ipkungfu
##plet
distri
video4linux
avid
aprt
ssh2
lotta
##mini
resolver
processing
didd
##when
lastly
essence
availabe
##326
regu
##cio
##cik
functions
##atives
reconize
##645
mac4lin
macogw
xfi
exams
dirve
decipher
relief
hdd2
accounts
observation
##129
floss
viewport
##anka
##roller
tvcard
##434
hotswap
rhet
##ales
lighten
lightdm
extractor
misplace
annoyances
dennis
marker
trickier
181
##207
pdf2
freenas
imgburn
##304
##liant
patron
craft
##ofilter
##awk
cvscedega
##885
##141
##148
263
attached
blogger
merit
##eeeeee
migth
400gb
mcs
5400
mx1000
ghostscript
gwen
impsy
sfdisk
cnat
shockwaveflash
aborting
##pedit
cinerella
w3c
thougt
8600gts
downth
libmtp
borking
defragmented
stopped
dropped
unrecoverable
wihtout
libtiff
##memory
rwxrwxrwx
##define
silverlight
333mhz
warthy
fussy
keybord
appriciated
sympath
##designer
enigmail
gazillion
preparing
neutral
pitti
pioneer
anticipate
tetris
levander
linuxdcpp
appropiate
vipw
##dualboot
messsage
ar5212
plasma
ensoniq
gdmflexiserver
libfreetype
blootbot
comparisons
jahshaka
wednes
2gigs
3am
6969
7400
8237
933
cath
c64
dame
darth
eip
ego
fet
gan
gil
g400
hers
hinder
iack
ixp
jad
krd
kword
lnd
lands
lrm
murl
oac
q2
qdvd
rin
sift
t3
vd
veter
xav
xft
zi
zack
##dam
##ski
##noob
##nipple
##jt
##jac
##jig
##pire
##5k
##1600
##hire
##880
##vx
##vault
##atio
##inary
##ori
anthing
inorder
##readed
whn
whic
##etto
##arded
renam
rebot
reburning
##eny
##alc
##alot
##alive
##ithing
myspell
comedy
liv
ster
ord
##dep
##rious
chal
##una
conspir
##illiar
gob
exes
exis
runs
runlime
runescape
diret
atd
william
caus
absent
absence
setted
unwise
uncla
moi
##ircd
##olith
##icent
##ermans
sporad
##agename
descent
logmein
##ublic
pasted
##perl
modif
aftert
israel
10mins
libat
libfont
autoup
##issue
messanger
##syn
ipchains
##ourt
naa
pcg
##pute
##860
##saurus
##ahh
availiable
placeholder
gpsd
rookie
##sentme
stranger
frets
entering
faile
xfmedia
##prog
numbers
uninstallation
dr17
subkeys
subdevice
autoconnect
lockfile
sk98
vlad
printout
rc6
lspnp
irish
scanmodem
entrys
2222
wlassistant
mkfont
scrollwheel
taiw
##137
viper
cyphase
##182
##188
##161
mario
##997
pleae
natilus
512m
235
236
squat
128m
actiontec
demux
tendency
complications
rfcomm
##236
##compile
cmds
larry
becase
mesa3d
brainer
periodic
aiw
parental
accesible
runnable
jeje
istalled
nerdy
rioutil
387
##gmt
cells
recomendation
recomendations
horizontally
pdt
##crap
reconnected
bogofilter
##59x
##warcraft
berke
robots
amazing
monkeyblog
audiop
audience
acx111
ferret
okej
babo
avaial
7950
looked
instruments
##mirrors
repositorie
thesis
marginally
1080p
melb
entertainment
corectly
sagem
vocx
mexico
alltogether
udevd
##visuals
negotiate
##scratch
arrogant
ppoe
enthusiast
enviorn
siocsifflags
sysklogd
up2date
downthemall
unclaimed
0gb
476
a6
airon
b1
cw
cum
cnet
eap
ecs
fuc
gand
hir
hans
jwm
kris
l8
lath
nsa
oll
oen
omeg
pom
pup
pug
rational
sint
wnt
ys
##creen
##cursor
##rion
##rates
##myth
##hell
##inos
##internet
##utorial
##otr
##acular
##ality
getent
##igital
struct
prohibit
##eling
##debug
shiz
connt
asla
##chp
exhibit
##ightvnc
negl
##urple
oks
##okii
heave
woulda
scrip
boots
windowsdualboot
##onto
grass
##usage
enuf
##iears
opensolaris
trub
##onger
fireftp
##best
modified
shows
##iful
##ualr
synapic
kem
passion
ohhhhh
quiz
loads
brutal
##ialy
##bostig
prblem
pero
perplex
happens
optionally
pastebinning
portscan
curser
wax
assing
winbox
figured
choosen
ends
##648
raed
xfire
farru
highl
##109
##805
252
speedup
##126
floopy
binarys
##official
1420
radeons
pciids
247
urm
##43xx
azuer
hotel
annoying
streaming
madd
scrollbar
fanboy
trie
trackball
separatehome
##454
##154
##question
donkey
##706
##ocks
selin
personaly
##548
128bit
##redict
##ucs
##onfire
##bytes
##ershaper
defragmentation
##394
##346
watt
braindead
convolute
keyrings
3400
axis
organizer
mozplugin
richie
whitelist
kensentme
bbiab
punish
kludge
##webcam
vuln
interpretation
cowork
dificult
lgc
takes
grandmother
transitional
southbridge
fakeraidhowto
12345
freespire
intuitivenipple
iwlwifi
##ounge
tripwire
drool
1920x1080
grafics
khermans
unrecognised
arcane
xvncviewer
tracert
umlaut
ithink
wondershaper
aloha
habla
bytecode
connexion
oldschool
brookdale
claws
riaa
coordinate
##total
omnibook
efficiency
osuosl
lilypond
worldofwarcraft
envelope
wednesday
iacknow
0pre
2e
3mb
454
5mins
6g
8762
aest
bm
b2
bil
cxx
cvf
erl
gde
hpo
icc
iget
jw
jab
lke
mish
psh
qc
raster
rsnapshot
s0
tto
udo
uif
vet
vsp
wk
wrest
xh
xlock
##u2
##lr
##nic
##jin
##1e
##hak
##vista
##vlc
thas
beet
##orse
tow
tofro
italy
ange
##iten
wheter
##arios
ongoing
ubuntu8
getted
##mean
proably
oranges
##elinux
dent
debuild
ifplug
##ppa
##ppc
noon
##thin
asked
##chine
alice
##aman
ex3
compusa
thankful
plunge
adware
##oka
outright
linuxtv
unhe
unex
imbr
##pla
##pline
grsecurity
##irmative
intre
backgr
repaste
##izers
wrk
libb
libreadline
differe
swit
swee
swiss
menza
quint
##issues
coin
bron
amaya
##ixp
pester
prt
creature
slate
sladen
elk
phpsys
##sair
sdparm
asshole
##portant
edgyupgrades
##ibilities
docum
##ncer
##ncies
##3200
##wei
##igns
wonderfull
explic
envior
relase
drat
2054
1900x
hangup
oblige
##247
##2400
daz
invocation
dropbox
##0007
definetely
##608
attempted
##auer
##772
##774
##1371
horz
refreshrate
bcm4
pcm0p
##189
##221
tomorow
##252
##257
traverse
238
##clear
ice17
visualboyadvance
conflicts
2915
corpor
##2300
resend
leader
tired
##344
merci
libglx
##ungle
701
rubyge
universally
authorit
ownerships
dotfiles
accompany
##787
jew
96mb
irqs
##labs
sfv
axel
sanne
ubuto
ssb
hidd
football
lawsu
lifesaver
945g
kernell
jaja
##switch
cordless
##fromscratch
connnect
groov
libtotem
3c59x
spreadsheets
graduate
galax
aqui
emma
adventu
intermittently
fontpath
sesion
cherry
preformance
##ndiswrapperhowto
realistanew
libgcc1
innov
automaticallymountpartitions
evanlec
proggie
somehwere
passworded
laziness
conceiv
kilobytes
inaccurate
nolimitsoya
##41b907
krdc
sk98lin
mkfontdir
aironet
##bostigon
376
7100
dress
dorm
eit
eather
fraid
gard
gset
kli
lvd
migh
m1330
pea
rme
raph
sak
tere
tib
talent
uo
xdd
zoo
##aion
##cell
##oise
##rg
##rh
##rit
##nit
##0t
##tm
##tz
##tar
##tone
##jay
##jag
##presses
##5e
##6eg
##hink
##fun
##kd
##kers
##wat
##was
##weak
thep
ano
anty
doi
dokie
whih
##etin
redefine
instinct
##erex
whate
fiend
##igi
stard
lover
##rio
shark
##ppes
noat
##illation
##chess
##elle
froma
ex0r
usuall
atop
##output
wheni
symm
neom
##uem
outa
outstanding
pajam
ims
part1
##plic
drivername
somtimes
gnuch
dismiss
spaces
##agne
##ashi
llutz
recog
afore
sourcel
##shm
fireworks
fixes
libl
sword
probal
crux
blade
blisse
corn
ahs
amy
aman
##pendrive
prune
freeagent
distant
slab
reson
resier
apll
wooo
64m
xpi
setupndiswrapperhowto
owned
smae
audiot
##114
winkey
virutal
endian
mp3blaster
32m
162
metaph
crashes
dmsup
xservers
thxs
20gig
differance
arecord
encaps
promisc
codeblocks
chmodding
##246
finicky
davey
libranet
##ribution
scanimage
invitation
awry
unmain
unmuting
##phones
eariler
80g
clearzen
##dfb
screwdriver
considering
giga
rpm2
delte
chroots
##157
micros
184
##209
##208
utilise
##blu
exportfs
accelerated
##181
umounting
##334
haskell
automaticlly
mediat
214
received
finaly
adjustments
##989
transpar
hyl
caracter
##149
##956
##likely
trev
styles
##isoimage
unpacking
pureadmin
recursion
cosmetic
dialupmodem
##371
falst
borland
uniq
446
boolean
chkdisk
lmfao
analogue
##content
libpurple
autodetects
##iene
foobar2000
gsfonts
synchronise
durring
autoplay
##nostic
deamons
bacon
##livecd
karamba
immune
libtorrent
reinstreq
requir
mcphail
vncp
tigerdirect
buffalo
graceful
inexpensive
##abouts
socks5
##ssssssssssssssss
messeng
unsuccessfully
gphoto2
##falls
linxu
vhcs
910gml
younger
greasemonkey
vigr
cs4236
##supplicant
ocean
delphi
daemontools
hullo
dystopian
tihnk
ashfire908
landscape
qdvdauthor
libfontconfig
phpsysinfo
gnuchess
511
bong
bnc
crom
elo
eci
fdi
ica
idd
i18
iversion
jb
lpi
ppr
ua
vect
vib
xsupplicant
##dj
##sources
##rak
##rne
##lix
##gd
##0b
##perm
##pile
##4si
##keep
##wser
##zn
theat
##inotify
##sters
itch
anp
##sever
##army
resent
relev
ona
onenote
##enz
##allly
foresight
##alizer
instu
notably
##rofile
meas
##igan
liar
lolol
soci
nova
noinotify
##chk
##chan
##asper
##ili
##ilar
##ilable
##ilab
nedd
windowz
abg
abot
nowdays
unprotected
imacs
chans
appoint
##imager
sp1
spind
enorm
##agen
sepr
clic
buil
readahead
##shadow
##cak
accustom
offcourse
orginal
##intel
##eryoda
prober
stucked
muchly
keypresses
homefolder
cris
freemind
perpet
disto
simulation
wineset
lotus
dvdstyler
softraid
atiixp
intercept
##rc2
breezyupgrade
sdh
sdcard
##atched
##ittorrent
##raq
testparm
1250
regional
experi
eth3
##estsrc
msc
ubcd
reconfigures
boa
botton
differnce
evdo
obsess
btf
cleanest
##iko
newbish
picard
wmware
environmental
capac
##aught
markup
##153
##156
insalled
bluec
cyan
svga
futile
##995
##994
##228
deadline
pkg2
##recorder
##702
kbs
thumbs
pentium4
##683
##348
athlonxp
deskop
darkice
nmapfe
blowfish
##tained
##926
makin
##ledget
##521
paperclip
mupen
sdc2
circular
affirmative
junkie
hesitant
incompet
1ubuntu5
bizz
unpredict
efax
pppoa
skew
yellowdog
simultan
succesful
intrigue
lgpl
duration
##value
xtightvnc
pixelated
responsiveness
rezise
##uptk
whithout
framerates
3c905
likley
m2n
gradually
##urial
sugestion
##buttons
##messenger
##pppppppp
courtes
ndiswrappers
alphabetical
##persistent
scorp
insatlled
celeb
recongn
tortoise
##engine
pakcage
appolog
lynoure
foo2zjs
holland
zomg
multifunction
slavik
succeded
opaque
kodak
sapphire
powermanagement
kazehak
argentina
agrajag
conspiracy
aftertaf
iacknowledget
205449
rubygems
authoritative
blissex
winesetuptk
3ubuntu
4600
490
8235
aide
bn
b7
cst
dull
dense
e6
gab
ight
jdbc
jenda
kmenu
muz
nf
pony
rope
sve
sail
tues
vous
vanta
v2000
vbull
xvm
xclip
##sun
##bench
##n8x
##jh
##may
##266
##xubuntu
##h0
##his
##hill
##vout
##z0r
##eroot
##atform
toi
tol
##ono
iter
anothe
##omount
whiter
hail
##eready
ofr
##ador
ifo
shine
shave
##uno
nob
conquer
##then
##ackup
##ello
alp
lineak
##amy
exce
allmost
##andra
##ilation
nedit
##oki
outfile
##ationally
setkey
booter
imper
gud
mog
coulda
##aput
buit
logged
kerne
##ubs
configfile
recov
versio
##shi
showtopic
tested
direct3d
feather
nvidi
flor
underline
phis
phant
##onda
##avage
hellp
coke
corre
ahaha
amend
naah
searchable
appt
##glut
googl
##clone
##asonic
normall
pathto
idsoftware
standar
standpoint
subhuman
1002
sortof
eraser
lockdown
##807
evild
states
154
receipt
truemobile
pursue
words
##logical
daft
bitter
irresp
2211
249
30am
duke
crapload
trashbin
streamer
madman
datas
##451
hacks
chowning
ubugt
##ova
officejet
ath5k
##known
magick
6047
##963
occy
ourselves
qtdir
infom
##ronics
marvel
plesk
plextor
honesty
majorly
##704
##708
##connectivity
wallet
##quested
tranfer
cfm
mtrr
carriage
##951
26th
histo
fwbuilder
conversions
##191
##debs
libglcore
gtkg
##grading
isntallation
mmmmm
gmd
##358
600e
200510
mc44
dreamer
0755
wakeup
interrupts
##moin
childish
brownie
mysite
boggle
tk8
unfair
gcjwebplugin
intallation
##sonic
jamie
jimmey
hardwaresupportmachines
hardrives
tatanka
sgd
##wait
##commands
heroes
dispos
disapears
hahahahaha
acctually
chapters
evrything
deem
croat
caveat
caveats
conenct
deleting
liveusbpendrive
multiseat
moderator
anto9us
##music
propagate
hermes
##graber
monopoly
libmikmod2
raptor
##rocessor
chmoded
pepsi
unhandled
aesth
tofrodos
ifplugd
imbrandon
adventurous
audiotestsrc
iversionid
bluecurve
liveusbpendrivepersistent
1kb
365
864
acd
cks
cows
ely
foun
gome
ged
gpled
irel
iknow
k9
ksys
kud
nerm
plo
tors
uf
v8
vba
vbr
wrok
yyy
##olo
##iks
##r0
##rap
##lash
##jor
##pel
##pd8
##fat
##fee
##vp
##zap
##q3
beige
youc
##omen
##omic
##itis
##itec
whow
whas
reim
redown
rewind
rehash
hade
##icus
##acor
##alarm
cannt
##ee263
ubuntu5
mydir
meme
coming
dew
shel
##unno
##eller
filebug
##asked
runner
dime
allo
mabe
drill
willl
thankz
##urge
##ulut
advent
hej
souces
setserial
scuse
scipt
unfreeze
cdimages
serios
grays
##imo
##olas
dispute
spid
netow
##usic
preced
presession
sees
##upes
cardreader
mayb
configu
hii
hihi
debfile
accum
##intu
##asta
firefoxes
##ondriver
helllo
bruce
crond
cruz
blat
letme
##archiver
amir
webbrow
freeglut
www1
www2
perc
pclos
##binary
scriptable
##867
64k
breezyupgradenotes
waaaay
isofile
fails
easyvm
easybcd
solita
disableipv6
killed
##327
##utilus
frames
sending
musta
rave
##ivated
memo
faild
##comput
quickbooks
1996
100hz
100base
skool
mbmon
personnaly
##sident
operative
career
##245
dao
yawn
##507
colinux
3dfx
md97
227
##phy
##mann
244
valve
30mb
gigantic
basiclly
##understood
##btn
fanc
triangle
snaptic
##eroen
hackish
screenshot1
poland
donations
501
curios
viet
##blow
slee
blunt
bluescreen
equate
equation
##551
stef
marble
honey
yeas
ical
dyrne
widnows
##665
##984
quieter
ugpr
000000
juan
libgphoto
0x2
##349
pixbuf
70gb
##749
simplistic
effecient
##magick
##921
clamtk
fuzz
nudge
ltmodem
mergedfb
combat
intellinux
2xram
xmpp
sara
##newbie
environe
casue
kenrel
lawyer
jesse
drwxrwxr
dkms
regionset
armada
82801h
82801fb
gaiax
milestone
fgrep
borks
rtl8185
tpb
walkthroughs
jeeves
infinitely
mimi
looong
jetdirect
icky
neccessarily
##broken
wokr
multiply
creep
zealot
mediaplayerconnectivity
htpasswd
celest
funnily
reassign
libreoffice
adjacent
revelation
wammu
webupd8
jfgi
downtime
aggressive
apostrophe
pysdm
ar5007eg
umbrell
peachy
eadg
opcode
lndir
enviornment
lathiat
vspike
sourcelist
dialupmodemhowto
setkeycodes
ubugtu
easyvmx
316
354
394
4am
4800
425
5k
5gig
cot
cplay
eide
efect
fus
gav
jumble
jeroen
lis
pj
pum
pencil
rst
rsh
r0x
sone
sven
tens
t41
tivo
uart
vise
wits
xwd
##aug
##sers
##rub
##bag
##lor
##nate
##nical
##mix
##mib
##yn
##hda
##fail
##f86
##fxp
##wash
##wif
##viz
thar
thesaurus
##aters
##orig
tog
anone
inser
doyou
##reya
whan
##eties
##ettes
##argb
relly
##albe
instaed
sujest
anycase
mea
comes
stgraber
proliant
chous
##uner
alow
algebra
##asco
##antu
##antages
someoen
##stead
##ndows
##ilitate
##idhar
compan
compon
compix
##doors
##uls
ada
abut
unauthent
bootmanager
appz
dismount
interent
##agi
prepended
gnomeui
clan
tellme
remn
suppo
wright
afs
##sha
##mmand
agnostic
accuse
isight
flas
libgg
##asteryoda
##spect
repositi
crude
corsair
wirelesscard
sims
php3
bugg
googled
mostlikely
softw
##focus
xprofile
##save
genisoimage
osnews
##cds
switches
testfile
localnet
multitude
regul
robb
##643
addressbook
xfx
xfix
utmp
dece
quickie
1994
encr
rcn
rc4
vnc2swf
stephen
warp
##obile
##pointer
228
##managers
radeondriver
executeable
1920
signify
pickle
rhy
specialise
performace
tech0007
geoff
delve
40g
adaptors
snappier
##159
503
tun0
perl5
blueprint
smartass
smartphone
##179
##171
##3333
yey
##google
##258
operateur
minimalcd
##667
##988
50000
uncomfort
##972
itunesdb
purekde
fuseblk
beatrix
escal
garry
##826
latop
pcsx
averatec
achive
250mb
runnung
proposal
##roska
gnomet
unoffical
fragile
admire
winecvs
xmoto
vmlinux
tiem
compositor
##crash
sysvconfig
openvz
skept
##ophile
900mb
##linked
thttpd
includes
silentdis
bastid
ajunta
kaarse
defragmenting
guardian
cartoon
inkjet
supergrubdisk
acrony
pwned
##aaaaaaaaaaaaaaaa
burningisohowto
proccessor
zyx
wokring
partedmagic
alignment
gerro
mistype
8400m
alrady
zd1211rw
mentality
microcode5
##morning
cigaret
dramatically
gawd
reisntall
inconvenience
easycam2
permenant
newcomers
ribbon
adrian
metamodes
conffile
fbsetbg
##iadriver
thakns
lindows
moto4lin
texteditor
inadver
unprivile
##application
exposure
shpchp
scummvm
resoultion
lscpi
bullgard4
unanswered
wengophone
selinium
wrestle
groovy
klipper
probalby
mediatomb
falstius
vncpasswd
dystopianray
unpredictable
courtesy
221174
ireland
grayscale
solitaire
md97600
0s
3k
399
5min
580
587
drom
ero
eeek
fint
jen
jib
kels
krist
kitten
lunix
mesg
mips
nie
oups
rnd
rrd
tard
tier
welp
xam
xomp
yh
yow
##cu
##caps
##rv
##b9
##bos
##low
##try
##jake
##530
##250
##8e
##virtual
##zon
thie
thug
##eries
##oust
beow
##inished
##stech
##stars
anx
anote
infor
yous
##rex
whne
##enity
##alls
##acies
##alth
##alpha
##bun
cany
canot
##isite
notch
uses
sust
orign
lolo
##rimin
shat
shir
chck
worky
##universe
nog
##thora
goot
filepath
alwyas
rundown
thang
usn
syaptic
sysc
windblows
plate
##ffm
linuxboy
linuxfromscratch
united
commod
appli
somere
gnokii
disresp
intens
networ
pole
##agre
newbe
sek
theyll
errormessage
addargb
checkdisk
##ummy
rema
tyou
soundtr
soundcore
soundkon
##shirt
agere
##cafe
screen0
##mbed
libary
swe
##spin
putt
quar
correc
correl
prv
overrate
##athe
slit
##865g
apis
buildd
buildpkg
emblems
ntfsmount
interlace
##rc3
initdefault
choos
osdir
failing
imagebin
testuser
##ises
panther
panasonic
12x
joel
##329
reconized
##override
1650
##sential
acqu
strg
stron
razr
virtue
memtotal
configurate
gtkwifi
bobert
drama
quicksilver
1970
##asket
##haz
printserver
hangon
cater
##243
hua
##parate
3dnow
mindi
mdb
##ngs
scanpackages
##guitar
listener
##3b2
ehternet
k3bsetup
techy
floppys
familiarity
405
##desc
successfuly
doublecheck
payware
##mswindowspartitions
md5s
trix
unstall
##453
utilization
tung
##pgp
##966
pngs
straighten
infra
kickban
plethora
##251
dylan
##trap
##906
kiddin
squish
unreason
gf4
docky
libgt
openswan
lyric
##gtx
##282
libglu1
##844
fourms
4001
spinrite
jargon
libgtkmm
neato
queen
euhm
surfn
paperweight
imposible
crimson
crimsum
wifirad
foolproof
megabyte
zonealarm
intellect
3700
nomore
nomasteryoda
streets
hyperterminal
oui
##ipping
##crack
scenarios
wxvlc
capitals
mikem
unfinished
pptpconfig
sky2
dowloaded
100mbps
owa
nasa
##kkkk
facilities
priveledges
immutable
comprehend
addictive
nikon
elementary
giving
wpc54gs
fundamentally
instlux
autoconfiguration
concurrent
embarass
citiz
##uuuuuuuu
cranky
alrite
moinmoin
tamper
softphone
configed
spectacular
libnss
autosave
a8n
multisession
##upported
ere4si
pdftk
automaticallymountmswindowspartitions
hypothetical
omega
recipient
tooltip
tooltips
lonely
fugly
zoneedit
indonesia
rewritable
amorok
pesky
fubared
pcmanfm
##abuzz
azurues
forcibly
xrdb
xauthorization
gwenview
taiwan
berkeley
azuerus
eciadsl
instuctions
kazehakase
chousuke
kaarsemaker
disrespect
soundtroubleshooting
wifiradar
0d
1min
296
375
455
442
4gigs
776
9746
ambit
bing
bord
brent
bike
czf
fulf
gj
gman
jos
jup
jake
jest
kconfig
kdesktop
lith
mso
morg
mno
mtr
nast
nib
och
qw
qjack
qustion
rca
r61
sba
uim
vbe
##categ
##uha
##r2
##bat
##nad
##ez
##eing
##tly
##torrent
##pd
##p0
##years
##9200
##hel
##wg
eoban
thw
##erv
bein
it´s
inclus
youself
##owered
##seg
resync
hawe
##esus
##esign
##buy
##robot
buttom
ubuntun
ubuntu2
anyhoo
comrade
##igm
##deff
shld
shaw
socc
##sshare
##unately
##unning
dise
somepackage
usg
ush
atime
mais
##ils
compa
adhere
abide
southern
seti
paid
unplay
impose
appart
moh
##ims
##imize
##irty
systemrescuecd
spr
spud
popp
preach
weigh
##cclient
desirable
checks
supporter
##caster
networkprinting
modifiers
##ifg
isit
screenie
screenrc
becaue
libjack
diffs
underclock
phuz
keybaord
brctl
crashing
blk
##xtreme
corr
ami
perh
usbserial
whoah
monolith
javas
interoper
04ub
suggested
easyest
glow
auf
auwx
##ahi
winme
wineserver
##ems
##iert
docu
turned
regulate
franc
##atively
##64codecs
alsaplayer
##toe
##estion
325
##atters
normalize
##letter
utah
virtualize
idont
numer
gtkam
bofh
replac
100m
##806
1520
floola
viewsonic
##erestimate
smbmnt
awt
incant
blanky
msg000
241
242
picker
0022
ipodlinux
azx
ehrm
charlie
annoyingly
##602
gimpnet
##augh
adaptr
##773
gott
##402
##heart
domainname
sleeping
craz
microsofts
scrit
deadly
rockin
kiddie
hdc3
##974
fuckin
fucking
collab
scratchy
268
temr
historical
architect
edgey
ingles
##285
practise
70hz
##942
crime
##744
privileges
##chao
sb450
gibson
ns1
mutually
fuppes
ata2
969
##menus
calculations
padlock
individuals
##267
##uuu
rt2561
txs
trivia
zenrox
ps2pdf
sigse
composition
##jeff
klik
win2k3
wvdialconf
netbooks
fantasy
collections
nyc
millen
tpconfig
bkspace
enhancement
voodoo3
##visor
3c509
cvzf
appliances
lads
routinely
266mhz
dnat
zyk
korea
rt73usb
reciever
repositry
8400gs
##walker
guildwars
peripheral
breathe
eepro
vastly
720p
scorched
mambo
##eclipse
hicolor
lokkit
racist
lavc
jokosher
andreas
mortal
calibrate
3389
xerox
libpango1
mildly
olymp
sollution
icesword
pccard
x1650
asuming
celtx
smartbootmanager
libfreetype6
explicitely
unmaintained
##bluetooth
libfontconfig1
vbulletin
torsmo
##ulutzy
unauthenticated
acronyms
kelsin
soundkonverter
fulfill
eobanb
0f
0b5
314
524
9mb
bib
bfg
cname
cked
cstrike
dapp
eal
fbm
fds
g0
gill
hf
i80
ijust
lal
lable
mall
mca
nih
ove
opl
ola
pll
pint
pnm
rit
rome
trib
tilt
t21
uis
vdi
vince
vcr
wak
wrist
x4
xjf
xterms
zeld
##aic
##oow
##dave
##drake
##iom
##big
##bah
##bank
##ggh
##grep
##0e
##jon
##yx
##x32
##via
##7c
##eros
##stine
##onnect
anf
anot
inquire
##nte
##arin
rework
haory
##acro
##ldock
##isplay
##isks
myip
##orkid
orly
orth
losetup
howso
deinstalled
deja
deped
##rivers
shfs
##sso
nooooo
nogroup
noclass
conio
##artic
thereof
##opr
asn
asulutzy
##chick
filesy
someother
##ession
nev
##ortable
##ulas
outlet
soun
htis
scam
scd1
mangler
unple
##abase
##abels
##irk
disgu
discharge
theyr
##ilence
remmeber
##izzo
defau
readin
##ongs
listchanges
versatile
debatable
shower
##ifically
nvnews
nvagp
libz
##uga
computing
ohio
brace
bricked
crisp
sau
##ounds
##athon
hmmz
##865
##anging
flashfxp
keepass
##ques
breezer
currency
minuts
genre
breakdown
processer
gl960
##ksource
esmtp
##ahs
mpgs
winows
postal
lsd
hostmask
323
ndisw
##oteus
metasp
groupadd
bigfoot
virtualdub
##ensite
idesk
boll
draper
20k
subfont
differn
expec
reportbug
daunt
pmwiki
brobostigon
##echo
scanjet
customised
momentarily
##slow
earl
uris
tuto
rh9
dupe
buncha
rws
##oids
ruleset
delicious
alsas
fedoraforum
worldwide
routable
excute
doug
nooby
midway
synthes
##sii
painfull
moral
pdfedit
##bling
##flix
60mb
img1
ppc64
smartlink
##proto
kickass
revoke
##227
libcurses
threadid
iceroot
cmake
##icles
cc1
##901
debsums
##549
285
cvs200
alienware
mmkay
294
motivate
##minder
xvkbd
mesh
darks
libxext
libxrender
gtksu
##847
##741
embrace
##369
respectful
yuor
skinny
nuff
euh
##789
somethig
tightly
upgradenotes
##ahahaha
##444
##ascade
##483
djb
granted
lilacor
thougth
dialect
unnecessarily
taking
sorrry
soemone
miranda
collective
ndsi
intel8x0m
defragmenter
unsatis
chm0d
ussually
ck804
##wizard
vendorsub
855resolution
t60p
freindly
blocksize
mathematical
wondows
vox754
fruity
satanic
distrub
r8169
hightlight
kgpg
##latex
anirud
unbelievable
microwave
reproducible
backuppc
libid3
jittery
perfomance
kooldock
l10n
semester
showstopper
murlidhar
neglig
raedon
enviorment
symmetric
neomagic
i18n
ppracer
enormous
cowsay
redownloaded
precedence
somereason
surfnkid
##category
unplayable
temrinal
1s
1sec
2m
2am
2ubuntu1
332
343
565
730
788
7ghz
8k
9400
bach
bild
cid
dap
fella
i7
joo
jane
jester
kot
kerm
kosher
lump
mop
mplay
nux
nim
owh
rut
rice
rv2
tic
t20
tasty
u1
vag
vap
vcard
yenta
ymessenger
##iou
##sis
##samba
##rz
##bond
##lion
##las
##nom
##nap
##girl
##0a
##920
##5b
##6g
##fill
##faces
##aty
##input
##stumbler
##onk
##oner
doit
##omi
##rens
##nted
whast
relocate
requested
onyl
##esy
##acl
##alsh
##isd
##ingle
fid
suer
myserver
mez
memm
com1
##pter
##iger
sting
prople
##ela
shaky
##ssions
##sserver
therein
thereby
##think
##thist
asy
aslo
gok
alphan
linmodem
exif
seee
alls
compen
neh
##ecting
cah
cabin
##lose
problema
saying
mange
##east
gus
gunt
driverloader
gnub
intstall
sp3
netcard
netspeed
wiz
addresses
clim
##upa
bub
remapping
hiren
tyr
listinfo
termial
askubuntu
offices
arsed
1023
linex
fixme
liberation
probability
kest
coom
cock
crate
crapp
videoram
video1
speculate
modest
##ressive
emblem
waugh
waaay
monitorrange
easylinux
whatsmyip
gl2
##rape
test2
multith
permissons
interfac
vmdk
killing
regon
##ostar
hosting
missunderstood
frighten
coolness
maching
##dddd
mscorefonts
fastcgi
basc
cpudan
irclogs
##locks
botnet
##103
erisco
converse
statist
codex
##haa
dhcpclient
gents
11mb
psm
##param
##iker
mics
##guid
functionally
cuss
8086
tvtuner
expectations
alioth
##asso
artical
possiblity
thoes
uhuh
##2006
##2008
jobs
successor
payment
ttyac
##1337
##snmp
suspen
##akeroot
sled
strait
##173
scrub
futher
##229
##223
libcrypt
pkgconfig
hugely
##705
##707
cmus
protocal
imaging
28000
dumpstream
disconnected
egdy
hurdle
##ughw
2900
reseat
##194
optimisations
200610
gamble
airlink
crackers
##946
timing
456
sbcl
##rilat
##421
tahts
tuxpaint
journey
82865g
##oolisnotabenchmark
imapd
0ubuntu5
awnser
##721
48000
pacific
tbz
authenticated
ivoks
investigation
hmmmmmm
##269
unnec
positively
estate
1ubuntu6
benjam
wrt54
billions
palmos
membreya
bagh
6666
threaded
ashamed
komp
roadmap
tradeoff
screeen
stoop
consistant
unsigned
uncor
avalable
junior
lamont
accellerated
electrical
journalled
xvfz
chuckle
indirectly
ultras
wtmp
destructively
##ffffffff
gadget
napster
hawk
##journal
zealand
oooooh
##creator
##eeeeeeeeeeeeeeeeeeeeeeeeeeeeeeee
217009
vegas
stunnel
wallpapers
forensic
subdomains
x850xt
##popup
bryan
webhosting
stellarium
dyslex
knoppmyth
quakenet
elitist
prerouting
phaedrus
##compatible
xixaq
nmbd
rhetorical
melbourne
pajamian
aforementioned
relevance
seprate
iacknowledgethat
hardwaresupportmachineslaptops
remainder
huawei
ambitious
qjackctl
##ksourceview
metasploit
benjamin
277
3600
392
540
7167
860
aout
bom
brett
dase
d800
fang
fdd
fxp
fledge
fwd
hpt
href
iraq
jank
kosh
ksnapshot
lust
ligh
lice
lah
moth
mug
mtime
m68
pserver
srs
ssmtp
tga
ucl
ugg
vee
wdm
xattr
##aiton
##o1
##oad
##ucent
##due
##lons
##nica
##g1
##gator
##tas
##jl
##pick
##wacom
thrill
beers
beng
##inally
toll
##onitor
itt
youcan
##lement
##rev
##itize
whent
whitch
##otick
rex
reward
haunt
onkar
##icator
##alinux
##bucks
ubuntuers
getright
withdraw
myhost
anyt
shes
chow
choo
##ssing
##ellow
##odus
alos
##asion
##assed
exagger
needa
allthough
atit
##iding
helpdesk
neet
okk
plae
soud
soure
yesh
htt
linuxbox
unis
bootx
##abble
somen
##imation
disasse
##ainer
poit
devic
president
newsp
newusers
openm
tellin
kernelversion
reporter
everyhting
##sheep
aggr
##ends
questin
10mbps
##conn
libapt
swp
probb
secu
qui
brighter
cruel
ahm
linky
prnt
prdownloads
weblog
webspace
peruse
usb0
pcre
pc105
binfmt
dapperupgrades
bugtracker
googletalk
emask
copm
##ents
badass
badalloc
sugg
usrname
hoaryupgradenotes
glare
##raven
nicest
esx
##119
closing
docid
textual
handsh
frw
fullsearch
experian
gpilot
prize
##6400
32b
dmi
cpu1
xfdesktop
farous
##compass
##mph
##roph
unter
drk
differen
100x
expiri
##803
weirder
obj
transaction
gento
pswd
##508
sysreq
featured
modprob
familliar
couch
unmark
1450
243
24th
signed
errone
ipodder
305
30th
##alex
##xpower
considerable
sideways
uhmmm
trashapplet
adviced
maxdepth
campa
rtsp
tty6
18gb
##sius
surgery
qtconfig
237
1024x786
scsi3
sidux
vpnclient
collisions
assistive
##959
rfakeroot
tehy
vidio
vidoe
transluc
pypanel
##341
##751
##752
##758
waterm
inspector
teachers
##944
##947
satt
satelite
##656
##359
iiiears
approval
##821
periodicaly
##927
somethink
profanity
interpid
9629
##0000000
##xeh
sumtin
earlyer
maths
hesitate
ssids
warcraft3
zoneminder
vt8
xara
bedtime
diagnosis
stationary
52x
surround51
sigkill
a2ensite
8600m
foxiness
svgalib
borken
autopsy
medic
ghetto
masquerading
glassfish
rhythembox
preemption
reinstate
predic
alc883
chuckyp
problme
latin1
galore
charter
royally
w32codes
suddently
reallly
voltages
astron
apperantly
ar5006eg
##wwwwwwww
boundary
indentation
slowdowns
dependecy
bonez
alphabet
phpbb2
higgs
margins
gratis
alternatecd
jedi
cirrus
throug
connetion
trendnet
wg511t
encyption
violent
tg3
mssql
##bbbbbbbbbbbbbbbbbbbbbbbbbbbbbbbb
f5d7050
3v1n0
pctv
helpcenterhowto
pestilence
misinformation
1366x768
g2g
libk3b2
arrrgh
residual
uninterrupt
blasphemy
principal
compensate
gandalf
kemik
noatun
transparancy
mupen64
celebrate
tuesday
evilden
nermal
uncomfortable
skeptical
inadvertently
unreasonable
phuzion
zykotick
eepro100
noclassdeff
baghira
416
478
5800
516
566
624
674
8100
8xxx
babe
bcoz
cascade
deed
ddo
dusty
ebuntu
fasc
hush
jl
jot
jungle
l0
lake
luf
mith
m32
nstall
nntp
qsynaptics
r5
tq
tout
tsc
t22
uuh
wf
wag
wamp
wots
xir
x31
xshm
yee
ypu
##uq
##uped
##r3
##rsp
##bile
##lot
##lun
##gies
##jun
##jpeg
##money
##9f
##210
##hgt
##fax
##finder
##4e
##kz
##8800
##vw
##zel
##ĺl
thare
##ouce
##orc
tod
tome
toms
##onde
anser
angl
youa
##itc
##sem
##etv
##etera
##arc
rene
reinitial
##ener
forest
##alon
##althy
whatch
buts
suns
##gently
mey
##econfig
##ptop
ifolder
##riz
sher
nooooooooo
condesc
##oday
lined
dimm
someuser
##ighty
nemilar
##ulse
##sos
scrib
paster
unspec
##pens
imbec
changin
cdma
cdda
serenity
guile
##plan
##0060
##ains
netflix
rights
poc
posted
presc
preaction
wip
wizz
weired
thingys
edt
suppl
writes
updatemanager
agg
mod4
questio
10m
feist
libw
libim
libmp
libfoo
libvisual
phix
swell
extre
mucho
quess
cofig
easly
cores
##ftools
gregg
##ubuntu0
directoryname
slat
##ulla
twea
avo
els
softlink
##ishi
restarted
##cli
reinstalled
badram
##saved
initi
graphire
bestbuy
whatsup
##cpu
localy
winblo
textures
textbased
turns
archieve
displays
pristine
##modified
##649
strap
bascially
ubantu
virtualpc
gtkhtml
bobby
x11forwarding
expere
##filesystem
vls
251
1525
parm
pingus
barry
##506
3ds
invo
##ouche
watchdog
##prior
entirety
##listen
##xpress
lightly
eheh
##767
delimit
excatly
azureus2
ttyl
folowing
505
sdb6
painlessly
moreso
##rarily
quits
cyb
##552
##558
##961
proprietory
crossfire
##338
##azzy
reiser3
mediubuntu
ogg123
possess
slacker
##903
labor
##542
##lib2
##bbutton
##975
##978
cs1
##1440
##952
docker
##ragon
completley
translucent
##687
messed
namespace
covert
partitio
toram
horizon
prefences
garnome
acerhk
borderless
illegally
##381
##hhhhhh
beneficial
luv
microph
ruku
joypad
appendix
incomming
accesing
muy
hexad
padsp
djpig
symantic
concept10
benn
powerbooks
ould
shuold
beerorkid
nothlit
reccomendations
isa0060
controlls
##nnn
rightclicking
freecom
unrealircd
analyse
kommand
kaiser
x800xl
montior
numlockx
anaconda
enhanced
friggen
immense
turion64
unistalled
senior
alc861
##mething
blahblahblah
wpc11
destruction
fortunate
buffered
ascertain
conferencing
apropiate
d620
megaq
##ounderror
gphpedit
paradox
paradigm
erorr
parport0
chekc
sde1
ensign
dramatic
reisub
wg111v2
houston
preparation
##launcher
realistically
channle
oxygen
##glxvisuals
cinepaint
hmph
libmysqlclient15
##floppy
dissapointed
##properly
danko
owrk
##pasting
qbittorrent
caffeine
scrool
arooni
cadega
colleague
chalced
corporations
messengers
mogrify
phantom
gaiax11
anotehr
sustain
##ssharesp
unpleas
disguise
ndsiwrapper
##thistoolisnotabenchmark
iacknowledgethatthistoolisnotabenchmark
zykotick9
noclassdeffounderror
0pr
2325
3ubuntu1
432
499
4500
633
bie
cac
e3
eur
fad
fux
gfs
gdi
hth
hime
jit
jsc
mia
m10
mgmt
nate
odf
oven
pel
pier
rash
wless
w64codecs
zor
zod
zless
zillion
##cis
##cmp
##ood
##iung
##bone
##g3
##gore
##glo
##mond
##moo
##yo
##xml
##hub
##finger
##kan
##kom
##vision
##zes
##qs
##er1
##eres
##oubuntu
##atel
bew
toto
ane
##lend
doign
##omson
##seas
whi
##uton
reb
revers
reka
haiku
##esw
##alom
notion
##adu
anyw
stur
stren
##orks
prol
lool
loca
shri
shab
chin
chen
noodles
conserve
##iller
##chroot
filesytem
alfa
runaway
runfrost
##anto
usu
atari
##essage
##ilate
##iden
##idel
helpin
nem
plse
plac
plop
hew
abrupt
unfo
unform
unwill
immature
cddrive
appror
moose
##002
etcetera
spa
encompass
##ults
preinstall
preda
backdoor
##ilean
timeline
##cking
remv
hipp
afer
afte
defen
readout
##mmx
##begin
ara
arstech
10kb
##cons
fluke
evenin
##astik
##spc
stucks
loadable
brw
crad
##xture
ahoy
##boys
sauce
perce
usbkey
usbmount
crew
olde
##864
##ooow
nt4
ntfstools
emotic
flashget
##clty
permitions
curr
##atcher
os9
smith
assault
glabels
##rax
solar
lazar
regions
lsit
##forms
missread
recommened
mouse0
acord
lew
controls
##qlight
untitle
submenus
100mhz
blackscreen
vlan
encription
##gaz
btr
musics
sitll
transgress
##pson
parle
paris
##oco
shortname
promptly
##parc
broke
popey
mentionned
incap
229
179
iwant
commons
iex
wmas
hmh
##assword
##766
origional
crapy
uhoh
misguide
hideous
tao
identically
##406
ubufox
washing
pcmc0
##3026
seperatly
oof
startxfce
##proteus
libswt
cmov
nativly
##259
radical
512k
284
##982
licq
improv
wmv3
##239
libgcj
splitter
impressions
##smith
##afax
0x80
darkg
904
earthlink
##851
##ermanently
pinch
gtweak
rubyon
##352
purist
##361
##367
fallen
haris
siad
darnit
nx6
comfortably
grrrrrr
supreme
segfaulted
clarity
##ahahahaha
9600gt
ivman
sfx
literate
blaqlight
kaffe
seamus
silc
netbooting
savy
eeeuser
established
empire
salute
kylix
skynet
intrusive
##vcreate
nyone
vpns
mechanical
mechanisms
ec2
telepathy
x1800
350mhz
intelligently
ussage
stanford
czech
libgnome2
rapidsvn
inventory
sebast
mimetype
addiction
fabio
spikeb
slideshows
goobox
82852
hardwaresupportcomponent
lunit
instruc
hirens
stagger
tommy
perfection
randol
x1900
beacause
emelf
libesd0
dubious
tnks
##ninja
complement
hyphenate
##nisr
povadd
bouncer
programe
torture
##hedge
hosp
20ubuntu13
vinagre
libopenal
radiost
ttyusb1
hafta
uninstal
expierence
fiddly
tristanmike
precaution
xjvf
cahnge
##ephyr
unuseable
bathroom
proportion
iscsi
horrendous
libgnut
reguard
coworker
tibia
dmsuperman
hylafax
trevino
society
celestia
zyxel
beowulf
addargbglxvisuals
bobertdos
soccer
wrt54gl
onkarsh
translucency
evildennisr
megaqwerty
##ssharespermanently
arstechnica
emoticons
0rc1
411
424
515
585
6mb
780
774
8e
aic
bald
cbr
e1
een
eac
fic
fone
fce
fpr
gbit
g4l
hod
hertz
iaudio
jt
jang
lig
p15
peap
pbbutton
rdf
r128
sss
slog
t23
uve
udu
x0
xsensors
zach
zzz
##aine
##corn
##uva
##dx
##iased
##basket
##lop
##tron
##tutorial
##pap
##9k
##3f
##310
##firm
##wit
##7600
##zs
##atos
ite
anch
anther
anwser
##lll
youe
whop
whiz
whiner
##etty
##utors
##erested
canno
##eeks
notable
subo
meself
comin
comap
stare
prope
orion
howl
##demo
deinter
##inds
##rider
shush
chack
##sser
##ssupported
workbench
##thep
##acker
assess
##ching
##checked
##changer
knop
knows
##onent
diary
ushare
atkbd
maxt
neph
adium
soup
shouldve
httrack
scilab
pag
unif
unsol
univer
chane
cdrs
##ounted
##olors
##00000
devise
downs
clay
clie
clum
buss
openning
tells
mountwindow
hardinfo
kerneltrap
wron
soundproblem
accout
bett
arf
versioned
1020
tew
optus
homedirectory
cobol
cramp
corrent
##ibles
amate
sax
##licked
webbased
helloo
plugged
twiki
avatar
elilo
resl
apropriate
##ooh
##clop
64b
javaplugin
javajake
breed
minority
wavel
wajig
longtime
glits
deta
detec
esot
test1
formatting
ramble
mplayerplugin
archaic
sambash
lsu
hands
swaps
mouseover
dualview
##lett
biggy
fave
execpt
##profile
lef
configurability
quicky
friendliness
hangs
obfus
shuts
##eelp
chmoding
catast
barrier
similarities
mikey
dais
warrent
##parser
##sco
##screw
##streamer
##obly
rma
sunny
80gig
urg
wmctrl
##dfx
listening
006
30mins
indexer
1350
rwsr
##backer
snat
##455
repeater
hacking
opie
opne
lego
dono
librarys
##blin
hdb6
adob
equil
##962
marcn
libsasl
threading
radion
trafic
##holes
magiciso
28nvidia
purposely
matroska
cvsroot
koala
##8888
hwat
logicals
teamviewer
permanantly
7777
##1920
undes
optimistic
90gb
##342
experimentation
spotty
recurs
penis
##849
##948
criminal
##747
##example
typo3
##827
dangerously
unusually
600m
apology
700m
xvids
harass
mx400
luis
accomodate
389
affinity
wildly
thai
organisation
150mb
proceedure
1ubuntu4
ssam
boycot
kmess
##crunch
##opts
vbgun
wxga
kenel
empires
intentions
##inocity
enviroments
heartbeat
k8n
ttilus
##voice
mirage
mirak
porno
jonny
kernelp
xsetroot
nautalis
insights
construction
sebseb
rainbow
e260
cvp
innotek
gettable
gettign
consolation
reinvent
d610
##supdat
mailboxes
hablo
catalogue
##hardware
alphabetically
##legacy
anyonw
celsius
provision
##messages
probabaly
rtcw
reassure
##99999999
quantum
clikc
moderately
strangers
enigma
##yyyyyyyyyyyyyyyy
wiggle
limited
puedo
eveything
luxury
verdana
airodump
unimportant
elephants
krazykit
stabilize
##policy
luminocity
penguins
##iblio
gotchas
437d05b5
hpoj
accumulate
fancier
strongest
mnoir
monolithic
scorched3d
rukuartic
unpleasant
##hedgehog
clumsy
sebsebseb
0200
364
5b
564
620
656
711
8b
880
815
830
894
8178
abus
bpp
cables
cwd
ctype
dah
eug
fj
fea
fans
fopen
g1
gdd
heed
hsd
i9
iin
idi
irl
jou
jur
kle
kai
mpl
n0
nir
nf4
oa
oes
oob
ozz
ols
p35
q4
r1
r4
s4
sxx
sjo
tect
tread
tts
utopia
xserve
xappe
##create
##uces
##dg
##sx
##rand
##lz
##nux
##nvid
##gal
##0f
##jas
##joe
##mop
##yc
##ything
##520
##1k
##x11
##kno
##zis
##zas
##zones
##qr
thk
##erer
##erpt
##inion
##oric
##orus
tox
##anium
##onn
itl
anom
anand
anthy
##lled
##left
dol
dome
##omo
##eters
##otif
##arus
reap
reale
reception
##enames
##icially
##alsa
##isance
myprogram
comunity
##pty
stance
proph
loos
sham
juste
soh
##uns
thereafter
##chief
alf
##ardware
fromwindows
diplay
somefolder
maps
comprise
helpless
nemo
##ulinux
mane
unno
lookign
gum
##imod
##olat
##usi
ende
premature
##cccc
downsides
openpgp
logg
themself
idefix
##eds
##shed
dontzap
##perf
modu
##ordes
##ifj
ism
upgradeable
10min
tent
hdaps
flum
libmo
libsnmp
##actions
xorgconf
actully
underp
synam
##onds
homebrew
cole
##series
brut
ipc
##ftware
amke
grepped
webadmin
webinterface
overburn
perception
usbnet
crembo
distclean
hmms
folder1
interenet
caller
minin
##sae
outputfile
geni
failover
##cpio
lastfm
##ibyte
mpu
##servers
rampage
killgore
sammy
gpc
gpod
##model
wormux
acom
bigdesktop
hda9
##tonix
##proc
ida
leach
relatime
submission
detector
discount
fatx
##809
2560x
codebase
muslim
obvi
##xxf86
transper
fschk
respos
paraph
parrot
dependencys
##501
colin
referance
awm
visor
unmax
##cuts
blanket
commentary
iwas
beta1
246
##lists
80mb
screwd
azu
possibl
registered
familiarize
40gig
level3
##606
##601
denom
denmark
esdplay
attempting
marko
##aaah
midis
primer
registerd
##snow
centaur
bittor
unix2
adoption
bluet
defined
compared
604
databse
propriety
marsh
revise
publickey
tom47
##701
pplz
cmipci
authentic
256k
imagin
##547
havne
squig
dangle
trustworthy
tonne
tonren
##884
demons
mmk
##953
##udar
yoou
rubin
otu
jussi
275
pyqt
undecl
optimum
pureftp
spotlight
torcs
darker
ti4200
developerworks
bitchy
##357
danand
crt1
brightside
lshal
##383
54mbps
browsable
##kins
propre
ripping
thinclient
##relay
negate
transparencies
vt100
##ocsif
rogers
xmacro
##462
reconnects
eeexubuntu
flatscreen
weakness
professionals
irrsi
quotes
rigt
ocn
niether
nightmares
wmp11
7676
ecrypt
##mmmmm
audiophile
advertisement
facilitate
medion
mountingwindowspartitions
philosophical
previos
##scheme
backed
hungarian
frigging
bcmwl5a
xfontsel
20050407
babel
cartridge
paulproteus
vcodec
##prefix
castle
magnitude
xvnc4
arrangement
ryanprior
procesor
7200rpm
concurrently
honour
multipart
skipping
sneaky
regressions
boundaries
principles
deselected
libcurl3
instlled
alook
johnd
johns
shotgun
aslong
antialiased
jhbuild
cannonical
annyone
driveready
craigbass
sha1sum
phenomen
7800gtx
kane77
multiplier
mspaint
ehehe
glest
nonexistent
sceen
yancho
guarentee
80x25
constraints
azeurus
mispelled
benifit
sledgehammer
occassionally
91370
vermux
coherent
icculus
webbrowsing
wirelesscardssupported
zelda
cc1plus
memmory
bascule
cpudan80
koshari
atitvout
plaese
handshake
imbecile
predaeus
remvoe
washington
rubyonrails
randolph
onkarshinde
uniform
wavelan
##supdatetool
undeclared
372
415
4kb
485
599
5300
661
866
ail
aure
astr
bunk
dall
eax
fz
fen
fok
gly
h4x
kre
lisa
mary
mthe
mfg
nore
nong
nfi
nwo
oq
ough
pach
rww
sire
t0
t7
tgh
tdfx
vint
vcs
wort
wdc
x61
xkeyboard
yosh
##cid
##cos
##oins
##dates
##ront
##rvr
##bn
##nay
##gc
##g4
##gates
##e80
##jp
##jones
##main
##manger
##motion
##3n
##2a
##w8
##vie
thj
thour
thave
th0r
##oug
thew
theft
##atics
##orce
##stra
##aning
itouch
anton
##lling
incent
youi
youhave
##request
##itably
##arp
##araid
reent
##alin
institute
cani
can´t
##road
##adress
mystuff
myprog
anyhelp
comam
stom
loser
shre
shak
shiester
soc
chri
chief
chosing
nologo
asses
##elli
knowlege
##odle
fileshare
linke
linxeh
divers
##ctly
##ersand
instaler
##inkle
neone
##urt
##okay
outof
shoulder
##arec
scd
scizzo
linuxwireless
unite
unace
unpro
unecess
unauthor
confine
##iaf
apprently
molec
grun
##olite
eto
##erminal
intructions
enab
polly
prelim
partitionning
thingo
backing
##iley
hardlinks
kernelcustom
suppor
trhough
userbase
##perform
offload
##ifile
tekn
##mented
phat
swoop
probel
probaby
menued
synatic
ohk
putting
quas
quid
blac
blak
corret
ahold
##archnix
amig
##ixx
##akt
##ours
prick
prbo
prts
passwrd
throne
thrice
slay
simcity
oldish
avilable
##solutions
procps
dapperdrake
dependable
softmodem
rebooted
portability
intersil
intersting
04lts
java7
specifc
smil
smarty
##rah
generated
followed
mp32
winod
##ema
##eman
lazer
1210
vmserver
belief
rememeber
samething
frome
endlessly
32768
acodec
rape
raven
dmseg
shells
1990
expocity
autoinstall
mailcap
##heron
258
257
coded
obst
paragon
refman
1138
extraneous
holdon
mentally
mdstat
famd
stupide
wlans
hmz
##433
generalize
##next
familier
rpmfind
alsasound
miscon
separation
scrollbars
excec
tajm
tripple
rt2
##anyone
halflife
##459
nfsd
##1550
legs
microdia
microsd
##204
sheer
##rarian
##309
##553
##556
cutoff
ispell
firmwares
##price
routeirq
##331
marx
bcm4310
xdialog
##7012
ppls
terabyte
terrific
256ram
283
dv2000
matth
##bbing
symbian
trusty
quietly
carandra
egads
hurray
mmo
##957
rubber
##smart
constitute
##393
darcs
##757
##tuion
octet
i855
mercy
airtonix
inspection
libxvid
costly
tiki
##742
timo
##829
warnings
burden
parenthes
##iusly
pwnt
propog
ich9
##aaaaa
impor
xeons
affil
##pipe
##robbler
pitfalls
synched
probem
creators
frequentlyasked
sabnz
bulgar
jdahl
sorr
640mb
5840
beefy
reflection
gaur
associated
jono
ariz
millise
ghc
tiglion
sharpie
joysticks
enhancements
junky
gnoem
curent
libpng3
materials
##reports
northbridge
employer
gradient
innit
pigin
##uela
magnify
bamboo
disposal
##broad
##brooks
thumbnailer
libavahi
6889
respawning
repositries
resistance
multicore
tolerant
understan
via82c
xwinwrap
theese
##dflags
wahtever
funniest
coudlnt
lartza
aweful
musepack
illustrate
joseph
bartpe
##osaur
##website
innocent
vitual
##onedgy
grpah
soldats
cramfs
mingw32
capplets
##iratebay
aggregator
nkow
conclusions
mutliverse
substantial
sequentially
leafpad
48x48
currupted
klined
overruns
aurora
kelvin
dircolors
##reviews
veteran
faileas
omegacent
farruinn
intrested
garden
thepiratebay
##permissions
appologize
excelent
infomation
umbrello
libggi2
shatrat
nomorepasting
sigsegv
opl3
unsatisfied
libid3tag
kestas
ttyacm0
predicament
lufis
xircom
hexadecimal
chalcedony
unwilling
gtweakui
harisund
libgnutls
anchor
daisuke
sjoerd
centaur5
kernelcustombuild
tajmox
frequentlyaskedquestions
3b5
3stack
464
554
6ubuntu
7g
764
7xxx
7184
946
aalib
bic
bure
bost
cog
dwn
ddi
dloaded
epp
eeee
fout
fich
gess
gary
hx
heeee
idio
isee
jame
jive
jingle
kab
lisc
mound
mcd
n00
pbu
pdb
rol
rpo
r60
sfs
sier
sio
txpower
uw
vale
wop
x1200
xephyr
yard
ydl
zu
##cable
##ois
##oir
##ofs
##uso
##uitive
##dist
##rations
##bright
##lick
##nor
##nas
##ginal
##mitch
##mans
##2html
##hot
##funk
##faction
##k2
##wie
##week
thum
thje
##ouser
tob
tople
tomat
itś
annot
##leaf
##oms
##rees
whut
hac
fora
fors
##ayout
##acet
##ereader
##buddy
cancer
whatver
##inging
comun
##ecam
##ptools
shhh
soap
chore
nost
consc
##illian
##odriver
##odbc
filesys
linked
linneighborhood
excut
runit
likey
sypn
##urse
okid
##ulp
##ulis
adition
scribe
linuxs
mana
unclick
unsaved
confmiss
confortable
windowsdrives
serr
serge
##onts
##oxic
mocp
mozz
somoen
##irha
gnubi
intar
intial
spc
netzero
poing
devc
newton
sejeff
wext
cla
backpack
buis
maybee
##ubis
kernelcompile
goodie
goodmorning
tramp
everyt
aft
reads
readwrite
agressive
playground
##ifer
restor
##tername
grub1
eveyr
optom
flu
kenth
puters
homemade
amin
amiss
pean
##lict
overscan
usbadsl
whoo
##ilder
##udent
pcap
##typ
twas
configuresound
avial
phpsess
##866
##glass
pointy
##resso
##quit
permin
046d
specificaly
sd1
##wert
genious
breaker
glide
##nology
regnum
##weather
frmo
experie
gpus
swapspace
alsa0
macchanger
intelhda
crashed
raf
razer
##ivley
##nsarmy
##ensing
idid
##mpf
bool
requires
100k
disco
discern
ergh
fat12
btu
operab
communities
damit
steps
catb
amd64bit
mixture
nickspam
daze
war3
warrior
holding
##screamer
##ika
exceptionally
broked
mindset
mda
sysutils
micr
micah
##obia
weee
inval
wlanconfig
##769
prototype
compling
compliance
geirha
yesturday
401
##eleration
attrib
##603
gconf2
opn
exiting
originals
pcmia
formal
##967
##lihood
qtorrent
refused
scrn
marcus
##aza
xdcmp
shitload
yeppers
terrify
personality
productid
especialy
caption
##544
icem
titlesearch
##librarian
dangers
5007
##coll
wastebasket
filled
tehn
coding
272
##689
underestimate
##391
##392
90s
##347
##753
partitoin
saturate
##podder
##748
division
##35d4
ticker
latty
fx5
##362
mcse
siocsif
mx4000
dcraven
steaminstall
lugrad
flynsarmy
nuisance
421
arghh
##527
grrrrr
bat0
reduced
sumthing
dumber
vt1
philipp
seekcomplete
professionally
usermode
significance
treatment
pitty
bunny
boyfriend
sigterm
reccomendation
keys2
##etypes
mike1
##bulous
##bulator
##grubeditor
intrusion
grandf
soruce
mirros
planetmirror
bcuz
facet
hairs
##isynth
montreal
##networking
sexual
judgement
czvf
##nesses
bruteforce
curently
arbitrarily
rv350
jetscreamer
atlantis
moodle
moonlight
vnstat
artifact
chatrooms
settigns
sse3
bugreports
aargh
##modules
freinds
2048x
kindofabuzz
##drik
subsequently
udner
pluggins
ricky
indiana
hablas
povray
javadeb
311158
cigar
##regator
libpcre
redraws
yamaha
hypothetically
##riginal
syndrome
##appeared
aproblem
197102
pctel
multilib
arthurarchnix
circa
##iguide
sequential
lemmie
georgia
hexidigital
masochist
mjpegtools
yopu
smbusers
wannabe
loooong
unbearable
diddnt
zippy
demuxer
elkbuntu
galaxy
whihc
cromag
vectors
incompetent
bizzare
ugprade
libgphoto2
##original
intellectual
alphanumeric
compengi
climb
aggrav
watermark
sattelite
condescend
incapable
sebastian
lunitik
povaddct
mountwindowssharespermanently
amateur
paraphrase
denominator
vintage
mp32ogg
carandraug
omegacenti
kenthomson
configuresoundproperly
phpsessid
1h
2ubuntu2
412
699
7x
732
825
9f
960
a0
ailean
bsh
cmedia
durn
dsn
gmpc
igu
jug
jstest
kboot
kish
kha
kmy
kron
kpackage
ksensors
linger
labled
lulz
ldflags
mack
mux
nth
ndi
noup
nbc
oin
oca
pis
pry
pyth
psql
p100
qe
qy
qmar
rop
savi
tange
uff
udi
uuntu
vene
wpn
werd
xed
xirc
xffm
x1550
##oat
##r1
##rating
##bane
##lag
##lave
##0g
##ese
##tip
##jg
##m1
##m800
##meth
##pone
##yah
##9600
##370
##6f
##620
##1c
##2mp3
##2pdf
##hx
##fk
##fed
##4dos
##8d
##810
##vably
##z1
##zx
##atan
becom
##inth
##inated
##internal
todd
tovell
itanium
anil
inux
##leec
##itudes
##selic
whick
whever
whish
##etech
rebr
recharge
##icard
ford
forst
instad
ofthe
##buff
##eese
##ntun
##rocks
##adiel
fie
sugested
anybod
comon
##igt
lip
sti
stash
stomp
loops
lovers
##demon
deer
deduce
installnvid
upgar
##illing
##illed
##ateam
asin
##chars
alb
##amic
exfal
dizzy
##ctory
needlessly
atk
maz
##inex
##idges
neon
##dogg
windmill
adres
##ffy
sudoed
hten
uned
##itehr
##abis
##iration
systemimager
spice
spaz
spalsh
netp
##usd
enselic
presto
##apore
partitioned
##istall
##osp
clnk
##ileiro
mountd
harddisc
edy
ed2k
themer
travis
ideals
versin
firef
termnal
showup
offically
arh
hob
##ints
##ipa
fixgrub
liba
libnet
libntfs
libwine
##astrike
sourceid
firefoxand
##onding
reposot
keypair
keysym
easilly
blonde
iproute
ahadiel
linkname
amanda
pek
webiste
webalizer
searchid
pluggable
avisynth
resur
differents
##bootcd
##bootstrap
apg
aply
##glish
##glrx
##eeps
##dish
points
ntl
emil
flashdisk
##matt
##quad
javad
badness
resoloution
64x2
minid
xpad
osmething
smok
formatter
##ibal
win32c
recommed
heads
regged
missin
fr500
wonderin
mp3player
##642
macmini
raj
fren
fredrik
fairy
numb
highpoint
unticked
drunk
1993
100kb
100dpi
discrimin
autoexec
pressing
evade
##haste
musik
obse
##paul
parittion
floating
catag
##ocal
wordpad
11n
recognizable
nicklist
##scrib
3dchess
##obi
##obs
factiod
fasterfox
##slack
patchset
80s
extraord
306
304
##xpat
riddle
riddell
delim
unmountable
resetting
browseable
descend
roommates
launchpadlibrarian
fancontrol
movieplayer
##458
##779
502
matchbox
pdflatex
happypenguin
##dvds
smarthost
infidel
##339
##identified
marrilat
designation
dlopen
yeild
concider
##709
icant
trawl
512ram
schm
gpgv
titles
##985
glib2
##971
20071016
calam
filters
jumpdrive
vidalia
##238
0001
juhaz
essay
treble
occurrence
279
##684
0x4b
##1976
##ershot
tags
##856
##652
starup
starbucks
prefetch
fc1
sbp2
sirs
##monk
nutubuntu
##elson
clamd
gurb
54m
0ubuntu20
44100
somethng
mua
rippers
pricey
##burst
marketing
guideto
150gb
vt7
##0rz
silk
antivir
mozila
lpq
instantbird
sufficiently
empy
##ijn
cowbell
kingsp
kingdom
rying
tilp
sorce
fdupes
norty
hhmm
outgoing
monti
sloooow
mjbrooks
stanzas
fvwm2
jailbreak
libgnomevfs
duelboot
flowchart
nikin
nikrud
partiot
hansel
##urious
cntl
consolidate
consequently
zydas
settins
niche
nicholas
eaiser
hardwaresupportcomponentsmultimedia
tolerance
eeprom
t61p
hawke
urbanterror
rivafb
##mnbox
neighbourhood
floodbots
hde1
spectrum
lartc
ens1371
vegastrike
gorilla
sonicchao
daapd
usershares
oxymor
00000000
cetera
dissapoint
helpcenterfaq
moniters
ebuilds
rectangles
funtion
eht0
kerenl
arguably
mactel
gobject
lawsuit
ksysguard
cigarette
commodore
acquaint
networkprintingfrom
04ubp1
negligible
guntbert
uncorrect
ultrasparc
prescott
avoide
lazarus
darkguy
hospital
jangari
flumotion
oughta
unecessary
menueditor
stupidest
libxvidcore
parenthesis
arizona
sierra
##35d466
lugradio
installnvidiadriver
exfalso
011
1am
2h
317
374
5ubuntu
5kb
568
690
7mb
741
8bit
8gig
8118
b3
bip
bsp
cound
cmy
deck
dcp
e8
e6600
f00
gis
grom
jaw
k2
kac
ked
kms
kaid
krename
kiax
lep
m15
nand
nach
nasm
o3
pvd
pword
rix
tether
uder
uds
vax
w0
wart
xq
yim
zapt
##oer
##dw
##iure
##ibe
##ricks
##gw
##eas
##take
##tables
##jer
##jre
##mly
##mies
##mapper
##yst
##3c
##horn
##far
##8b
##840
##warth
##7h
##zak
##zora
##onlan
youu
dok
dokey
##itel
##etics
##utt
##uters
##uttle
rebb
hadd
forlong
##alist
##bum
##isl
##rogram
##rys
##member
meow
##ecast
livd
stork
stir
stfw
profox
##omed
loathe
##deal
##death
installshield
shap
justa
chagne
##ssid
nolisten
##opular
gocr
lint
linner
##ctic
usp
usre
usws
atall
neu
##orts
caught
##uli
pla
adp
adap
abl
##socks
linuxwacom
papers
palette
unagi
unmodified
package1
finding
impr
partation
##plant
systemtools
spite
speex
netkit
netstumbler
rightly
engr
##iek
premi
newfolder
theyve
##aple
##osly
##osph
timezones
suppport
##adev
repack
repartion
afresh
afew
afriad
soundchip
ideia
defoma
paste2
agenda
##pert
firefly
termn
termanal
playonlinux
questoin
##ifig
nvi
isint
screenresolution
grub4dos
flod
swallow
synaps
keybo
helluva
messin
messag
copper
coco
comeon
brower
iph
ip1500
lapto
ahd
happiness
greys
##ourpaint
sah
pepper
webapp
webdesign
overseas
nahh
binar
leases
elp
apar
aprox
apreciate
ntloader
restartx
channelname
curren
##saw
initd
gens
genmask
breakages
image1
hoaryhedgehog
easybuntu
winnt
infobot
posts
archiv
##feisty
samus
alternitive
##cience
greatful
endpoint
endorse
mustve
##ffected
mouseclick
mac80211
324
msie
allowed
##otext
stright
bigtime
memcheck
launchy
idx
appearantly
##anged
graphicscard
relaly
unto
botting
2012
1004
discrete
ftpserver
retarted
retrive
converting
##1280
pingable
##ocated
recognice
shortest
popcorn
wartywarth
convertor
singapore
incarn
sunshine
sata1
etherconf
beta5
beta3
heroin
808
80386
compatiable
303
techs
gefor
##avent
##604
##cmd
executing
##myst
unfortu
shooters
##457
nm256
cheesy
progname
broadcoms
formulate
insom
equations
##165
espresso
3gig
regarding
##listed
infuri
marathon
##991
design7
dls
concert
selves
personalize
##hofer
authentification
2300
newsforge
hdc5
500m
##mafia
##979
telnetting
csm
hwdb
scponly
svnserve
multihead
fille
##231
blogage
xvinfo
mesages
##looking
##addrt
##hope
libxft
##pthread
crist
universities
bsds
bsdutils
n00bish
##kitty
nscd
##ionality
tahnks
nuts
aiui
546
54mb
dcpp
nuclear
embedded
accesable
j2ee
kernals
supers
geexbox
462
160gig
bloatware
gnomad
introduct
reviews
powered
bonkers
bedroom
moms
daddy
kdetv
hyperth
brasileiro
desired
thoreau
##john
wxwindows
punj
truthfully
4928
win98se
##gamer
bait
wirte
dowloading
succesfull
pacakage
berk
e2fsprogs
soruces
mirac
porblem
88e80
italiano
ajmitch
pbx
##aaaay
tremend
helixplayer
alguem
stopper
demonoid
hd2600
slooow
situate
mjg
homer
germans
remoted
babolat
suports
cdrtools
sucessful
sysadmins
38400
powersupp
fortress
ampache
quesion
icecast2
consecut
##friends
mhmm
netwok
unaffected
moutn
7900gs
xwininfo
franco
synapse
backslashes
fifteen
miserable
predictable
enyone
dominate
24575
ragnar
compatiblity
puede
evolutions
xkcd
exectuable
a7n8x
arrogance
hmpf
libfaad
f5d7010
economy
obvios
somewher
libexpat
snippet
##frontend
vodaf
freepats
kcron
proccesses
mozillateam
azerus
titanium
bounty
tifm
2ubuntu5
rectangular
1360x768
commercially
rudiment
woundering
heirarchy
libtcl8
willingness
sweeet
1900x1200
ice1712
encapsulate
incantation
i8042
##chicken
joost
libcrypto
stoopid
campaign
anglais
libimlib2
ensignred
esoteric
libsasl2
boycott
vbgunz
synamptic
sabnzbd
gnubiff
operabrowser
venez
pekwm
guidetohoary
premiere
wartywarthog
1386
276
312
417
4100
6am
695
728
8254
ait
ase
bkar
c5
cth
dpt
dork
dtp
dpl
dwa
e4
eer
egy
egroupware
feck
f4l
glf
gba
gvm
h4
hick
hhh
jbu
kiv
kwifi
kiso
klauncher
l3
lubi
lunar
lingu
mplayers
nigh
nid
nipple
pus
p133
pvcreate
qs
rim
rif
r02
sru
sized
t2
tms
tsu
tf2
vamp
vhs
vader
weel
wacked
xtr
yoo
zil
##cou
##oze
##uide
##uum
##uah
##daddy
##i8
##rich
##rative
##rato
##non
##nia
##0c
##eo
##j16
##jud
##much
##mass
##prom
##yers
##3a
##1t
##fj
##4n
thow
theh
##sthe
ana
anoth
youw
##sede
##otch
rede
rebel
hag
onion
##icro
forwar
##alty
##ldoc
figh
fiasco
getlibs
suxx
anyo
##igen
##igal
stll
##eln
demsg
iff
ifire
ifrename
installat
##ppet
noel
noies
uprade
##illar
##chvil
##terr
knew
gobble
##odb
alumin
##asu
exl
expe
thanls
diy
##anty
usless
usuable
syt
##ersion
compability
ne2k
##uedo
pl2
heath
hearted
ably
linuxq3
manny
pase
unblack
imdb
part2
changet
serer
guine
##people
##abs
##plore
graz
grsec
##imus
##iral
systemsettings
##iche
spx2
netselect
rightof
##agga
devide
preinst
wiw
addre
##istion
##isting
veiw
evertime
downstream
##aptime
whereby
whereabouts
buen
timeframe
mountwindows
eddie
edimax
repart
updgrade
soundsystem
idebus
##uestion
networkcard
typed
afterstep
offsite
##ifo
nvr
resticted
holler
libart
##actical
xorg7
phd
phex
swish
##spa
##spit
synonym
kentu
kexi
loadmodule
coca
britt
crummy
blake
greate
overprice
nao
cred
searchfiles
plugind
plugger
plugging
directoryindex
editer
writeup
avr
modesetting
##862
apre
##zygy
buggin
emo
folder2
interm
interwebs
javaws
curly
oscar
deter
##aho
locals
selective
gameport
##feature
##ciation
##cius
##weet
##weigh
tarfile
ctime
baseball
clearty
ross
coolio
reconf
reconsider
##641
##64bit
mouse1
321
328
freel
sticks
fazer
relat
untangle
substring
differant
berylonedgy
illriginal
autojoin
erf
locker
ubotus
evident
15min
manageable
obconf
lesshaste
reflex
11gb
daw
holder
##ik0
##ikal
iran
solved
facto
recoverymode
iwll
##ioca
##rootlogin
erratic
30s
indexing
families
modifying
misuse
##umbered
excerpt
##anywhere
unfortunatley
##452
##778
goty
horn
envy24
screenshot2
##20s
integral
formate
##flg
firmly
##308
jackass
crossf
characteristics
revive
libcss
emacs22
nathing
mvo
##662
##546
28wif
prevention
middleclick
newsleec
dv6
##ismo
visualization
letters
##cookie
selfip
##giht
wasteful
##cycle
##udie
##nced
juz
##nautilus
gammu
##killer
##dc56
300kb
sections
libxaw
crackly
penny
##841
staroffice
omgubuntu
timers
malays
typoed
458
reverseblade
gibb
75dpi
atlef
xlib6g
greets
07dc56
##hhhhhhh
pgadmin
wakeonlan
gxmms
flight6
##3d1f
reccommended
hexdump
calculation
chainloading
383
padman
##12345
photograph
cellular
saned
guideline
trivially
recieves
headsets
forehead
tapioca
g4u
##8738
dongles
regeya
alexander
zebra
threats
pasv
owuld
cyberblade
ayuda
spoonf
encouragement
##blahblah
dx10
pollute
relese
murphy
giftd
giftoxic
maildrop
magnetic
beasts
fuzion
mimetypes
thumbdrives
premier
proxim
##prefs
contribution
spamassasin
zope2
##prising
7300gt
lvl
##miliar
magnus
mibbit
mercurial
1400x900
grim
staffer
uncleanly
ar5005g
lesst
independantly
inherent
spellchecker
sofar
##harddrive
jinzora
packege
conenction
wahts
hldsupdatetool
velko
channell
compatibilty
viole
iostat
##potato
externel
criticize
jacob
newcomer
sincerely
uglier
irexec
pxelinux
bounties
elephant
alraedy
vt8233
enumerate
jemt
clonecd
hollywood
shoddy
##osetup
dameon
autoupdate
fretsonfire
audiopci
conntrack
trubble
maddler
quintin
conceivably
xtightvncviewer
remnants
unprivileged
rrdtool
anxious
embarassing
gmane
jankrato
newspaper
expirience
supplied
unformated
subopt
sambashare
shutsdown
recursivly
unix2dos
babelfish
xvnc4viewer
via82cxxx
pbure
somoene
buisness
qmario
firefoxandplugins
uswsusp
4928900
vodafone
28wifidocs
newsleecher
07dc563d1f
jankratochvil
355
4d
495
468
5f
632
6ubuntu1
8756
920
990
aways
a100
bol
cis
cest
cities
dts
d00d
eld
fount
gith
g630
hould
jorge
kedit
kla
kbear
lud
mome
mrl
mars
moun
miester
nme
nont
nload
ocm
pect
rory
rak
rutil
r40
tst
tget
tuck
ueagle
vill
vouch
wird
weap
xub
x10
x12
xkey
xarchiver
##cry
##col
##cie
##cups
##carter
##cules
##uar
##udi
##dal
##iop
##iens
##rition
##rinter
##bntu
##bare
##ln
##law
##nat
##gister
##0ne
##pay
##518
##x6
##x7
##xorg
##has
##hist
##hav
##fv
##four
##kow
##wog
##vk
##v8
##zan
thri
thund
thrid
##erted
##erator
theine
##atix
bea
##inng
##orically
##lls
infile
inthere
##reat
##itration
whon
whare
whipe
##etti
##aria
##array
andres
reintall
hazy
##esn
##icing
forcing
oficial
##rocket
ubuntuone
myhome
mypassword
mycomputer
anywh
limb
libex
limbo
liflg
stty
stark
strog
orudie
loy
##elost
installa
installion
##riel
shuck
chs
chalk
##ssip
conk
##arting
##ills
##opsy
knack
alil
##aserver
##ardo
dimms
##antee
##ndu
atdt
mae
mabey
whenver
syzygy
oky
aptitute
##area
wouldve
scm
mananger
unw
uner
uneeded
confus
package2
findout
cdub
##rra
gub
##platform
wellcome
intead
spi
##rectory
gnomedesktop
starts
##things
everone
##tey
##apter
openwen
timely
##ionsh
suppost
##aced
hiho
reco
recoll
ideo
stilll
pasteid
##shade
nv34
aran
10s
1028
hdxy
hd48
##ternatives
firts
##eryl
libf
libof
libxxf86
diffic
autmatically
undergo
##instructions
quer
##syms
wirechief
amigo
diskettes
prow
webgui
usblp
searchin
simul
happened
avifile
woa
softare
##query
portnumber
interfer
0403
java1
sugges
initram
wai
burned
##which
glick
esse
realtec
##1100
winblow
talkign
belt
remem
##ncard
samb
figg
lsi
handel
audiocd
accede
acidentally
strabes
rawrite
rafa
##dera
fastboot
memstick
amds
dhc
##encoding
##mpg
##ropy
drw
1991
100s
100000
1000000
expr
autoboot
mailutils
##aska
mbp
15th
hangover
shutup
shutting
hopelessly
parity
viewports
##ocol
##logic
##242
huff
finer
bitte
##scrn
brod
librar
indications
irb
invidia
##gues
customisable
coupla
blocky
awos
14a
14gb
containers
superkey
supercede
00ghz
30g
301
308
artic
behold
officialy
missed
staticly
madison
scrolling
usefulness
trio
cambridge
snack
snip
snazzy
tricks
trickery
##ussion
folow
digi
##blayout
perl2
continous
3gigs
scrren
kicks
kickoff
marginal
##azine
pleaes
xdcc
##goon
zips
tels
dslreports
maintained
231
crazytom
finals
288
dv9000
syslogs
unrest
fetched
128k
seveaspackages
hints
hy000
tonite
cs4
complication
monochrome
##unter
multiuniverse
ott
trevin
occurance
2700
pyc
0x1
mpeg1
reiserfsck
optimisation
1gbit
tiresome
##759
i815
##858
##857
auxw
gloss
programmable
##949
##941
##651
facepal
garrett
##gregor
##magazine
boris
dreamlinux
##389
parenthe
libgtkhtml
wheels
alteration
##529
gwib
##ahahh
##441
paman
##handler
blender3d
404s
dumbest
fb0
fbcon
cookbook
ralinktech
66ghz
esta
flamewars
untarring
sarah
autostarting
accelaration
hiden
##graphical
capitalization
joey
balloon
6720s
witout
truthful
pptpd
favourites
flatron
fetchmailrc
##bulary
g510
difrent
owen
cybercafe
##vcview
obscurity
portugal
libssh
writte
id3v2
##uko
nexus
prevail
karl
btdownloadgui
sebna
pffft
frambuffer
nameofpackage
rythm
neogeo
replugging
fireglcontrol
joshua
turbogears
succed
randabis
hilighting
definitively
hijacker
cruise
beacon
freezing
autocompletes
720x
lappys
ov51
ich5r
concentrator
pinninghowto
abnormally
kakashi
185174
mexican
installsmeg
l2tp
antoher
suppossed
hapens
royalties
piont
interupted
zvacet
##ecommand
soreau
appologies
snippets
alwasy
##blk0
counterparts
indonesian
propperly
packagingguide
dodgey
phillips
##jjjjjjjjjjjjjjjjjjjjjjjjjjjjjjjj
inevitably
gcombust
serio0
academic
voyager
openafs
undertand
sympathy
rinse
diretory
sporadic
jejeje
l8r
umlauts
unheard
caracters
requirments
20051012
croatian
kudzu
encrpy
rndc
##bunny
smartbootmanagerhowto
asnwer
##guidelines
probbaly
##lunatic
btrfs
abusive
mininova
mozzila
philippines
tovella
mjg59
francois
ensignredshirt
ifireball
noiesmo
kentucky
cleartype
suboptimal
pbureau
07dc563d1f41b907
pectol
openwengo
413
498
482
4324
577
525
5150
6u
822
8888
911
aand
agr
auch
a70
aoe
aaaaaaaaa
aplet
bjc
coup
dac
dno
dfi
dsk
eitehr
fust
fas
fath
fiction
gue
gauge
gender
gtrans
hba
iĺl
jor
j00
jrid
jbod
k1
kous
kto
kcm
kilo
lash
lub
lcp
lemon
mow
muc
n3
nen
nun
n100
pil
rive
ries
r124
tsocks
uq
uhhhh
vou
woks
wimp
xmb
xrender
xcomposite
y0
yon
zm
zak
##aje
##cob
##oss
##ogh
##uht
##s2
##rice
##rpc
##bri
##bir
##nse
##none
##0m
##eye
##tls
##jy
##jesus
##pink
##yone
##year
##yng
##9b
##939
##5a
##fresh
##4all
##kp
##van
##vir
##730
##z2
##qj
##qual
thur
theater
##atus
bender
beaver
##stable
##story
tomp
todos
##anoff
##onian
doa
dox
##itous
##sest
whar
##etary
##uty
reven
reffered
##eson
##enes
##iching
##aler
insts
##lde
##aday
ubuntuzilla
withthe
supri
mybe
myfolder
meddle
comf
comuter
##keck
##pting
stric
proj
##elic
##deps
soething
churn
choub
##ssl
workers
##unet
noip
connc
convey
##artz
##arten
##thign
aso
##chester
knees
filepermissions
alcat
##asdf
linpopup
##amin
##americ
ex2
##cts
seemed
somehing
ma111
mafia
syas
sytes
wanto
##idt
##inky
##ortex
##urable
##loved
plastik
outperform
outweigh
scoll
manuel
pawan
nows
noway
uncon
unfix
unles
booth
bootstr
bootmenu
commant
seri
moe
grml
grph
somer
##iming
##irs
##irmed
##olis
disast
##ermaster
##icket
netware
righty
deviate
previ
wier
##cco
clothe
wherein
backuped
opened
mountiso
edited
trak
##izelost
llinux
recap
typer
ide2
firefo
##cabulary
##grams
modifi
programer
betcha
queston
downloadmirrors
isnot
screenname
seemless
1025
directoy
defaultly
##ualy
fla
flower
libaries
##actor
##actiaf
livejournal
##ogi
autose
underrun
sourcemage
probobly
stud
##avour
passys
homeip
broth
wirell
corba
prg
prison
perse
videodev
##athome
slrn
entre
simlink
oldname
resintall
646
minime
doesntwork
##aphone
isobuster
hardwares
didnot
assos
assholes
easybreezy
##ittin
auct
auction
esle
follwed
multime
##ruder
selectively
laste
cloop
docroot
##oster
##formance
pride
robo
nautils
ethe
hardyupgrades
reconfigre
completed
ubtu
nextstep
##ensions
leon
enviro
decades
areyou
1980
##odent
mailscanner
rethink
erh
##fiid
ubot3
umu
15000
hangin
hopeful
externals
##hhe
raids
startups
purty
##241
certainty
similarity
documentations
warbler
psst
psuedo
privat
cola
colons
##scope
mentor
md2
irch
##oban
##ironment
visitors
1492
amarokapp
1718
entires
##ggg
24h
24557
herself
confused
verge
##3button
30kb
authdaemon
charger
##763
beginer
thoght
complier
##backend
englisch
##shots
delight
misfit
capabil
maxes
taime
denial
roomate
triying
cammand
noobness
##suite
opion
microkernel
folowed
cheking
gatekeeper
50kb
##ovie
morrow
tunn
insat
insurance
cynical
##18xx
paramaters
plzz
oohh
maril
##ofellow
publically
plea
filth
concer
##connected
terse
terabytes
resolving
radios
posibility
reloading
mixx
xinet
##668
labour
##pported
imagick
fetching
kooka
##zzo
antisp
boarder
carpet
dfp
##889
xterminal
plainly
validation
265
bandit
dbi
caldera
cod4
##compiling
oppos
278
##lookin
undec
limewirelinux
kkath
993
i845
merodent
watts
4310
tihs
mmmh
##353
##greeter
commercials
##429
emulate3button
xineram
##wsr
ruff
booo
##mountpoint
426
potter
doesn´t
geeze
impolite
boredom
##brown
texm
texinfo
crysis
gnomerad
##481
##262
##zerland
beni
skillz
bumble
brend
brelic
incompatibilities
tengo
ultimatebootcd
wrt54gs
1600x1050
mikebot
##rrrrr
lawyers
austria
ipw3945d
sabe
weaker
##warf
##warning
##racker
gears
homedirs
ocur
jdt
dissable
dissappeared
collect2
wmp54gs
nym
indicators
##frich
mlr
relearn
reposting
##waii
charsets
remoting
prosavage
requisite
cgc
133mhz
unsucces
scandin
embarassed
semantic
swappable
preseeding
commande
reqs
virginia
autogenerated
amplify
paradizelost
mmcblk0
spellchecking
mathematics
keyloggers
hostapd
zealots
##1983
celcius
wyzard
1080i
victor
20060611
##customizationhowto
kunbuntu
65536
consequence
ressource
crunchbang
incrementally
udevm
custome
##rasing
unintuitive
peeve
machinename
distrobutions
##developer
repetitive
saslauth
xkblayout
connexant
onyx
cinema
bluefox83
conffiles
16384
##gggggggggggggggg
kinky
kolourpaint
printername
verdict
##tttttttt
##sprinter
conclusive
faggot
x200m
litterally
wubiguide
xslt
druid
alraune
##387ee263
alreayd
inevitable
repackaged
interchangeable
##errors
coppermine
steroids
avaialble
windowsdualboothowto
erlang
switzerland
alpine
correclty
acdsee
cruzer
escalate
msoffice
inclusive
anirudh0
cabinet
dasei
srsly
erroneous
perceive
pcmc0d0
##3026387ee263
startxfce4
hardwaresupportcomponentsprinter
pbbuttonsd
adobereader
oafiid
ecryptfs
randolphcarter
incentive
stomach
winodws
58403026387ee263
sypnatic
aditional
avialable
icemasta
grandfather
tangent
netpbm
delimiter
hardwaresupportcomponentsmultimediawebcam
oxymoron
cmyk
kacpid
rebbot
synapsis
powersupply
pl2303
lesstif
syzygy42
parentheses
gwibber
gnomeradio
0kb
2fm
3m
334
4a
4m
434
5m
5tb
612
672
786
712
724
843
9a
bret
cba
cking
dfe
edo
ender
fod
ferm
fgets
gop
gant
gander
hin
hpp
hect
hie
humb
i965
i945
jg
jas
jade
juggle
kapp
kost
kamp
kiw
kmsg
kaput
lion
lect
llo
mule
mouting
nps
nbr
noun
njan
ooc
pash
pbs
qwest
rg
rcp
ruf
risc
rsyn
sre
sind
sant
sgt
saint
tay
tct
tup
tale
tinfo
tds
uinstall
vw
vterm
wreak
xang
xover
xio
xms
xaa
xerver
xforwarding
x550
yyou
znes
zatt
zgv
##aan
##aire
##cas
##dv
##dup
##iary
##sub
##lad
##lich
##n2
##nw
##need
##nium
##gas
##tic
##mant
##pos
##pnc
##paces
##928
##365
##1a
##2u
##fab
##wear
##vh
##vz
##vine
##vore
##780
##7000
##qe
beam
beamer
##orize
toh
##anl
anna
inqu
##leo
##lext
##itas
##itecture
##owl
##uture
rew
reed
reins
thatnks
hap
hamm
##enal
##enix
forte
##acon
##acces
cane
##isit
notif
buti
withe
suexec
st3
stitch
proly
loking
lovin
##ustek
deactive
justask
sov
sooooooooo
chunky
noble
noooooo
upad
##chang
knee
gossip
knowhow
yourdrive
yourpassword
excp
somewere
maest
compressed
instalar
helping
nemes
##orex
##uling
##loss
adi
heim
heise
htem
setterm
linuxh
pah
unip
unho
unbind
impair
serch
##abre
##pler
##plane
grou
somecommand
##iring
##olic
etf
gna
disney
disbale
inti
spee
spade
netlim
devpts
preety
starte
wiat
serverside
wehn
wehre
##istan
##istry
backbone
##leased
logitec
edgers
kernelhowto
goody
reponse
trump
##izar
tycoon
soundfont
[...]
